{
    "0": "\u0000",
    "1": "\u0001",
    "2": "\u0002",
    "3": "\u0003",
    "4": "\u0004",
    "5": "\u0005",
    "6": "\u0006",
    "7": "\u0007",
    "8": "\b",
    "9": "\t",
    "10": "\n",
    "11": "\u000b",
    "12": "\f",
    "13": "\r",
    "14": "\u000e",
    "15": "\u000f",
    "16": "\u0010",
    "17": "\u0011",
    "18": "\u0012",
    "19": "\u0013",
    "20": "\u0014",
    "21": "\u0015",
    "22": "\u0016",
    "23": "\u0017",
    "24": "\u0018",
    "25": "\u0019",
    "26": "\u001a",
    "27": "\u001b",
    "28": "\u001c",
    "29": "\u001d",
    "30": "\u001e",
    "31": "\u001f",
    "32": " ",
    "33": "!",
    "34": "\"",
    "35": "#",
    "36": "$",
    "37": "%",
    "38": "&",
    "39": "'",
    "40": "(",
    "41": ")",
    "42": "*",
    "43": "+",
    "44": ",",
    "45": "-",
    "46": ".",
    "47": "/",
    "48": "0",
    "49": "1",
    "50": "2",
    "51": "3",
    "52": "4",
    "53": "5",
    "54": "6",
    "55": "7",
    "56": "8",
    "57": "9",
    "58": ":",
    "59": ";",
    "60": "<",
    "61": "=",
    "62": ">",
    "63": "?",
    "64": "@",
    "65": "A",
    "66": "B",
    "67": "C",
    "68": "D",
    "69": "E",
    "70": "F",
    "71": "G",
    "72": "H",
    "73": "I",
    "74": "J",
    "75": "K",
    "76": "L",
    "77": "M",
    "78": "N",
    "79": "O",
    "80": "P",
    "81": "Q",
    "82": "R",
    "83": "S",
    "84": "T",
    "85": "U",
    "86": "V",
    "87": "W",
    "88": "X",
    "89": "Y",
    "90": "Z",
    "91": "[",
    "92": "\\",
    "93": "]",
    "94": "^",
    "95": "_",
    "96": "`",
    "97": "a",
    "98": "b",
    "99": "c",
    "100": "d",
    "101": "e",
    "102": "f",
    "103": "g",
    "104": "h",
    "105": "i",
    "106": "j",
    "107": "k",
    "108": "l",
    "109": "m",
    "110": "n",
    "111": "o",
    "112": "p",
    "113": "q",
    "114": "r",
    "115": "s",
    "116": "t",
    "117": "u",
    "118": "v",
    "119": "w",
    "120": "x",
    "121": "y",
    "122": "z",
    "123": "{",
    "124": "|",
    "125": "}",
    "126": "~",
    "127": "",
    "128": "",
    "129": "",
    "130": "",
    "131": "",
    "132": "",
    "133": "",
    "134": "",
    "135": "",
    "136": "",
    "137": "",
    "138": "",
    "139": "",
    "140": "",
    "141": "",
    "142": "",
    "143": "",
    "144": "",
    "145": "",
    "146": "",
    "147": "",
    "148": "",
    "149": "",
    "150": "",
    "151": "",
    "152": "",
    "153": "",
    "154": "",
    "155": "",
    "156": "",
    "157": "",
    "158": "",
    "159": "",
    "160": " ",
    "161": "¡",
    "162": "¢",
    "163": "£",
    "164": "¤",
    "165": "¥",
    "166": "¦",
    "167": "§",
    "168": "¨",
    "169": "©",
    "170": "ª",
    "171": "«",
    "172": "¬",
    "173": "­",
    "174": "®",
    "175": "¯",
    "176": "°",
    "177": "±",
    "178": "²",
    "179": "³",
    "180": "´",
    "181": "µ",
    "182": "¶",
    "183": "·",
    "184": "¸",
    "185": "¹",
    "186": "º",
    "187": "»",
    "188": "¼",
    "189": "½",
    "190": "¾",
    "191": "¿",
    "192": "À",
    "193": "Á",
    "194": "Â",
    "195": "Ã",
    "196": "Ä",
    "197": "Å",
    "198": "Æ",
    "199": "Ç",
    "200": "È",
    "201": "É",
    "202": "Ê",
    "203": "Ë",
    "204": "Ì",
    "205": "Í",
    "206": "Î",
    "207": "Ï",
    "208": "Ð",
    "209": "Ñ",
    "210": "Ò",
    "211": "Ó",
    "212": "Ô",
    "213": "Õ",
    "214": "Ö",
    "215": "×",
    "216": "Ø",
    "217": "Ù",
    "218": "Ú",
    "219": "Û",
    "220": "Ü",
    "221": "Ý",
    "222": "Þ",
    "223": "ß",
    "224": "à",
    "225": "á",
    "226": "â",
    "227": "ã",
    "228": "ä",
    "229": "å",
    "230": "æ",
    "231": "ç",
    "232": "è",
    "233": "é",
    "234": "ê",
    "235": "ë",
    "236": "ì",
    "237": "í",
    "238": "î",
    "239": "ï",
    "240": "ð",
    "241": "ñ",
    "242": "ò",
    "243": "ó",
    "244": "ô",
    "245": "õ",
    "246": "ö",
    "247": "÷",
    "248": "ø",
    "249": "ù",
    "250": "ú",
    "251": "û",
    "252": "ü",
    "253": "ý",
    "254": "þ",
    "255": "ÿ",
    "256": "he",
    "257": " t",
    "258": " a",
    "259": " s",
    "260": " w",
    "261": "nd",
    "262": " the",
    "263": "ed",
    "264": " and",
    "265": " to",
    "266": " b",
    "267": "in",
    "268": " h",
    "269": " wa",
    "270": "re",
    "271": " f",
    "272": "it",
    "273": "ou",
    "274": " c",
    "275": " l",
    "276": " he",
    "277": " d",
    "278": "er",
    "279": " was",
    "280": " m",
    "281": " p",
    "282": "om",
    "283": " T",
    "284": " o",
    "285": "ay",
    "286": "ar",
    "287": "ing",
    "288": "is",
    "289": " g",
    "290": "il",
    "291": "id",
    "292": "at",
    "293": "en",
    "294": " n",
    "295": " sa",
    "296": " ha",
    "297": " S",
    "298": "im",
    "299": "an",
    "300": " The",
    "301": "or",
    "302": "on",
    "303": " it",
    "304": " th",
    "305": "ll",
    "306": "le",
    "307": " H",
    "308": " her",
    "309": "et",
    "310": "ot",
    "311": "ir",
    "312": " She",
    "313": " He",
    "314": "ver",
    "315": "es",
    "316": " in",
    "317": "ut",
    "318": "ow",
    "319": "ck",
    "320": " e",
    "321": " u",
    "322": "ld",
    "323": " They",
    "324": "oo",
    "325": "ig",
    "326": " said",
    "327": "am",
    "328": "ily",
    "329": " be",
    "330": " y",
    "331": " r",
    "332": " st",
    "333": "ce",
    "334": " she",
    "335": " \"",
    "336": "pp",
    "337": "ke",
    "338": "ith",
    "339": "On",
    "340": " I",
    "341": " with",
    "342": "ve",
    "343": "Lily",
    "344": " on",
    "345": " of",
    "346": " so",
    "347": " his",
    "348": "ked",
    "349": "ri",
    "350": "nt",
    "351": "very",
    "352": " pl",
    "353": " day",
    "354": "ad",
    "355": " you",
    "356": " that",
    "357": " up",
    "358": " had",
    "359": "st",
    "360": " play",
    "361": " they",
    "362": " Lily",
    "363": " we",
    "364": " mom",
    "365": "my",
    "366": " for",
    "367": "el",
    "368": "ould",
    "369": "un",
    "370": " B",
    "371": "'s",
    "372": "itt",
    "373": "ent",
    "374": " happ",
    "375": "The",
    "376": "ch",
    "377": " li",
    "378": "out",
    "379": " want",
    "380": " sh",
    "381": "her",
    "382": "ly",
    "383": "ime",
    "384": "ittle",
    "385": "ound",
    "386": " very",
    "387": " time",
    "388": "ome",
    "389": " little",
    "390": " there",
    "391": "se",
    "392": " do",
    "393": " wh",
    "394": "all",
    "395": " k",
    "396": "end",
    "397": "al",
    "398": "ht",
    "399": " ne",
    "400": " re",
    "401": " not",
    "402": " happy",
    "403": " big",
    "404": " M",
    "405": " but",
    "406": " sm",
    "407": "ack",
    "408": " saw",
    "409": " It",
    "410": " as",
    "411": " an",
    "412": "ra",
    "413": "riend",
    "414": " friend",
    "415": "ide",
    "416": "One",
    "417": "ry",
    "418": "'t",
    "419": "ved",
    "420": " is",
    "421": "Once",
    "422": "ake",
    "423": ".\"",
    "424": " were",
    "425": "ter",
    "426": "ug",
    "427": " loo",
    "428": " lo",
    "429": "ore",
    "430": "ec",
    "431": " Tim",
    "432": " him",
    "433": " bo",
    "434": "!\"",
    "435": " too",
    "436": " upon",
    "437": " go",
    "438": "irl",
    "439": " j",
    "440": " wanted",
    "441": " girl",
    "442": " se",
    "443": " out",
    "444": "ard",
    "445": "way",
    "446": " sp",
    "447": "ill",
    "448": "ind",
    "449": " them",
    "450": " could",
    "451": "fu",
    "452": "hen",
    "453": " at",
    "454": "ur",
    "455": " did",
    "456": " smil",
    "457": " their",
    "458": " are",
    "459": " ex",
    "460": " A",
    "461": "ain",
    "462": " went",
    "463": "art",
    "464": "hed",
    "465": "rom",
    "466": "ic",
    "467": "round",
    "468": " have",
    "469": " nam",
    "470": "lp",
    "471": " all",
    "472": " J",
    "473": "ful",
    "474": " kn",
    "475": "hing",
    "476": "ood",
    "477": " help",
    "478": "ight",
    "479": " friends",
    "480": "one",
    "481": "ark",
    "482": " back",
    "483": "um",
    "484": " can",
    "485": " named",
    "486": " cl",
    "487": "?\"",
    "488": " fun",
    "489": "are",
    "490": " Ben",
    "491": " loved",
    "492": "elt",
    "493": " al",
    "494": " Timmy",
    "495": " One",
    "496": "op",
    "497": "side",
    "498": " le",
    "499": " no",
    "500": " sc",
    "501": " Tom",
    "502": " felt",
    "503": "oug",
    "504": " smiled",
    "505": "ick",
    "506": " asked",
    "507": "You",
    "508": " toy",
    "509": " man",
    "510": " around",
    "511": "ame",
    "512": " fe",
    "513": " say",
    "514": " boy",
    "515": " some",
    "516": " looked",
    "517": "ure",
    "518": "omet",
    "519": " br",
    "520": " would",
    "521": " me",
    "522": " bir",
    "523": " like",
    "524": "get",
    "525": " start",
    "526": " ro",
    "527": "as",
    "528": " see",
    "529": " W",
    "530": "ice",
    "531": "ong",
    "532": " bird",
    "533": " somet",
    "534": "dd",
    "535": " wor",
    "536": "ade",
    "537": "ie",
    "538": "king",
    "539": " ag",
    "540": "own",
    "541": " tre",
    "542": " fa",
    "543": " away",
    "544": " what",
    "545": "ings",
    "546": " started",
    "547": "gether",
    "548": " ran",
    "549": "â",
    "550": "ared",
    "551": " make",
    "552": " But",
    "553": "ited",
    "554": "if",
    "555": "oud",
    "556": " made",
    "557": " together",
    "558": " something",
    "559": " exc",
    "560": "ag",
    "561": " co",
    "562": " park",
    "563": " new",
    "564": " sad",
    "565": " put",
    "566": ",\"",
    "567": " from",
    "568": "ble",
    "569": "ther",
    "570": " pr",
    "571": " mu",
    "572": " car",
    "573": " home",
    "574": " You",
    "575": " then",
    "576": " when",
    "577": " found",
    "578": "ell",
    "579": " other",
    "580": " again",
    "581": " ch",
    "582": " dec",
    "583": " who",
    "584": " la",
    "585": "ried",
    "586": "ss",
    "587": " good",
    "588": " hug",
    "589": " L",
    "590": "pped",
    "591": " wal",
    "592": "ep",
    "593": "ally",
    "594": " says",
    "595": " fl",
    "596": "est",
    "597": "ach",
    "598": " E",
    "599": " excited",
    "600": "pl",
    "601": "qu",
    "602": "ook",
    "603": " get",
    "604": "ought",
    "605": " playing",
    "606": " got",
    "607": " sw",
    "608": "ous",
    "609": "hat",
    "610": "ny",
    "611": "ided",
    "612": "uck",
    "613": " things",
    "614": " every",
    "615": " decided",
    "616": " came",
    "617": " bec",
    "618": "ave",
    "619": "ro",
    "620": "ax",
    "621": " liked",
    "622": " down",
    "623": " dog",
    "624": " scared",
    "625": " v",
    "626": "udd",
    "627": "ust",
    "628": " one",
    "629": " find",
    "630": " bl",
    "631": " than",
    "632": " D",
    "633": "ouse",
    "634": "ways",
    "635": " kne",
    "636": " didn",
    "637": "ap",
    "638": " mommy",
    "639": " care",
    "640": " always",
    "641": " ab",
    "642": "ist",
    "643": " dad",
    "644": " feel",
    "645": "ara",
    "646": "bb",
    "647": "arn",
    "648": "fe",
    "649": " your",
    "650": " outside",
    "651": "ue",
    "652": " gra",
    "653": "ant",
    "654": " ke",
    "655": " Mom",
    "656": " took",
    "657": " lot",
    "658": "nn",
    "659": " bu",
    "660": " about",
    "661": "ess",
    "662": " F",
    "663": "nder",
    "664": " tree",
    "665": "eci",
    "666": " look",
    "667": " po",
    "668": " my",
    "669": "our",
    "670": " toys",
    "671": "ite",
    "672": "ched",
    "673": " knew",
    "674": " thought",
    "675": "ened",
    "676": " learn",
    "677": " int",
    "678": " old",
    "679": " more",
    "680": "nna",
    "681": "ise",
    "682": "ged",
    "683": " ta",
    "684": "udden",
    "685": "ecial",
    "686": " special",
    "687": " Max",
    "688": "au",
    "689": " will",
    "690": "ers",
    "691": "They",
    "692": "ret",
    "693": " pe",
    "694": " ho",
    "695": " Sam",
    "696": " take",
    "697": " ball",
    "698": " know",
    "699": " laug",
    "700": "fter",
    "701": "uddenly",
    "702": " cat",
    "703": " how",
    "704": "ive",
    "705": " tr",
    "706": " much",
    "707": " any",
    "708": " pu",
    "709": "ma",
    "710": " sl",
    "711": " sor",
    "712": " mo",
    "713": "ven",
    "714": "ish",
    "715": " show",
    "716": " couldn",
    "717": "ause",
    "718": "ink",
    "719": "But",
    "720": " house",
    "721": " into",
    "722": "ump",
    "723": " over",
    "724": " tried",
    "725": "and",
    "726": " eat",
    "727": " sk",
    "728": " sun",
    "729": " tw",
    "730": " clo",
    "731": "ia",
    "732": " run",
    "733": " hand",
    "734": " Every",
    "735": " en",
    "736": " inside",
    "737": "dy",
    "738": " if",
    "739": " told",
    "740": " never",
    "741": "ion",
    "742": " qu",
    "743": " because",
    "744": "by",
    "745": " proud",
    "746": " gave",
    "747": " sorry",
    "748": " this",
    "749": " op",
    "750": " played",
    "751": "ate",
    "752": " expl",
    "753": " heard",
    "754": "ty",
    "755": " or",
    "756": " water",
    "757": "ank",
    "758": "ge",
    "759": "sed",
    "760": " pick",
    "761": "other",
    "762": " room",
    "763": "etter",
    "764": " just",
    "765": "ace",
    "766": " hugged",
    "767": "ak",
    "768": " gre",
    "769": "here",
    "770": " off",
    "771": " Sara",
    "772": " pret",
    "773": "ile",
    "774": " each",
    "775": " long",
    "776": " com",
    "777": " box",
    "778": "ort",
    "779": " str",
    "780": "iz",
    "781": " unt",
    "782": "oth",
    "783": " wat",
    "784": " need",
    "785": " jo",
    "786": " We",
    "787": " small",
    "788": "Tom",
    "789": "ine",
    "790": " bear",
    "791": "Mom",
    "792": " until",
    "793": " nice",
    "794": " try",
    "795": "ving",
    "796": "uc",
    "797": "sel",
    "798": "ough",
    "799": " learned",
    "800": " kind",
    "801": " Anna",
    "802": "ild",
    "803": " fo",
    "804": " many",
    "805": "'m",
    "806": " Jack",
    "807": " better",
    "808": " im",
    "809": "imal",
    "810": "gry",
    "811": "urt",
    "812": " animal",
    "813": "ft",
    "814": " end",
    "815": " sn",
    "816": "aut",
    "817": " te",
    "818": " cle",
    "819": " Jo",
    "820": "vent",
    "821": "urp",
    "822": " gr",
    "823": " beaut",
    "824": " jump",
    "825": "mb",
    "826": " ad",
    "827": "ream",
    "828": "pt",
    "829": " So",
    "830": " Her",
    "831": " flow",
    "832": "ies",
    "833": " che",
    "834": " bra",
    "835": " thanked",
    "836": " even",
    "837": " best",
    "838": " call",
    "839": "ady",
    "840": "He",
    "841": " lots",
    "842": " laughed",
    "843": "self",
    "844": " ra",
    "845": " way",
    "846": "urn",
    "847": "ars",
    "848": " fast",
    "849": " by",
    "850": "lly",
    "851": " fam",
    "852": " C",
    "853": "ves",
    "854": "arden",
    "855": " garden",
    "856": " beauti",
    "857": "wn",
    "858": "Th",
    "859": " beautiful",
    "860": " loud",
    "861": "lew",
    "862": " sky",
    "863": " don",
    "864": "hn",
    "865": "ered",
    "866": "iny",
    "867": " careful",
    "868": " love",
    "869": " fi",
    "870": " Then",
    "871": "â",
    "872": "â",
    "873": "ase",
    "874": "ect",
    "875": " safe",
    "876": " And",
    "877": " under",
    "878": " come",
    "879": " From",
    "880": "Yes",
    "881": " Mia",
    "882": "me",
    "883": "It",
    "884": " hard",
    "885": " cu",
    "886": " wo",
    "887": " list",
    "888": " stay",
    "889": "ane",
    "890": "sh",
    "891": "ople",
    "892": " gl",
    "893": "ning",
    "894": " still",
    "895": "ool",
    "896": " hurt",
    "897": "ree",
    "898": " His",
    "899": " imp",
    "900": " family",
    "901": " both",
    "902": "rm",
    "903": "igh",
    "904": " lived",
    "905": "hes",
    "906": "When",
    "907": " people",
    "908": " animals",
    "909": " col",
    "910": " brave",
    "911": " walked",
    "912": "ob",
    "913": "Tim",
    "914": "ct",
    "915": " let",
    "916": "urpr",
    "917": " When",
    "918": " two",
    "919": " surpr",
    "920": " should",
    "921": "ished",
    "922": "ress",
    "923": " bad",
    "924": " kept",
    "925": " fore",
    "926": " â",
    "927": " flew",
    "928": " fin",
    "929": " stor",
    "930": " fly",
    "931": "ast",
    "932": "ised",
    "933": "ip",
    "934": " its",
    "935": "led",
    "936": "ock",
    "937": "ucy",
    "938": "fore",
    "939": " going",
    "940": " clean",
    "941": " dan",
    "942": " soon",
    "943": " pic",
    "944": " called",
    "945": " share",
    "946": "kay",
    "947": " angry",
    "948": " rock",
    "949": " pretty",
    "950": " con",
    "951": "No",
    "952": " ide",
    "953": "ied",
    "954": "illy",
    "955": " ground",
    "956": "xt",
    "957": " red",
    "958": " explore",
    "959": " cry",
    "960": " advent",
    "961": " sto",
    "962": "so",
    "963": " real",
    "964": "Let",
    "965": " wind",
    "966": " shiny",
    "967": "be",
    "968": " book",
    "969": " also",
    "970": " doll",
    "971": " idea",
    "972": " before",
    "973": " opened",
    "974": "dded",
    "975": " while",
    "976": "ummy",
    "977": " keep",
    "978": " ey",
    "979": " now",
    "980": " feeling",
    "981": " door",
    "982": "oon",
    "983": "oy",
    "984": " walking",
    "985": " noise",
    "986": "les",
    "987": " fr",
    "988": "age",
    "989": "ious",
    "990": " color",
    "991": " turn",
    "992": "thing",
    "993": "ff",
    "994": "uch",
    "995": "th",
    "996": " bed",
    "997": "ary",
    "998": " dra",
    "999": " picked",
    "1000": "imb",
    "1001": "eet",
    "1002": " climb",
    "1003": " del",
    "1004": "What",
    "1005": " being",
    "1006": " food",
    "1007": " un",
    "1008": " far",
    "1009": "ture",
    "1010": "joy",
    "1011": " adventure",
    "1012": "ac",
    "1013": " smile",
    "1014": " dif",
    "1015": "â",
    "1016": "memb",
    "1017": " wr",
    "1018": "ught",
    "1019": " thr",
    "1020": " looking",
    "1021": "iced",
    "1022": " next",
    "1023": " Lucy",
    "1024": " nodded",
    "1025": " quick",
    "1026": " P",
    "1027": " dis",
    "1028": " repl",
    "1029": " Dad",
    "1030": " wait",
    "1031": "ized",
    "1032": " forest",
    "1033": " clos",
    "1034": " Suddenly",
    "1035": " tra",
    "1036": "That",
    "1037": " eyes",
    "1038": "ger",
    "1039": "bbit",
    "1040": "ted",
    "1041": " own",
    "1042": " rain",
    "1043": " import",
    "1044": " great",
    "1045": " rememb",
    "1046": " picture",
    "1047": "Thank",
    "1048": "Suddenly",
    "1049": " stopped",
    "1050": " enjoy",
    "1051": " vo",
    "1052": "Ben",
    "1053": " give",
    "1054": " important",
    "1055": " work",
    "1056": " near",
    "1057": "gan",
    "1058": "pot",
    "1059": " ever",
    "1060": " app",
    "1061": " after",
    "1062": " quickly",
    "1063": " listen",
    "1064": " bre",
    "1065": "ting",
    "1066": "bbed",
    "1067": " ma",
    "1068": " replied",
    "1069": " fish",
    "1070": " rabbit",
    "1071": " hands",
    "1072": " G",
    "1073": " noticed",
    "1074": " bro",
    "1075": " slide",
    "1076": " walk",
    "1077": " think",
    "1078": " truck",
    "1079": " ac",
    "1080": "kes",
    "1081": " strong",
    "1082": "She",
    "1083": " showed",
    "1084": " de",
    "1085": " everyone",
    "1086": " wonder",
    "1087": "fere",
    "1088": "bye",
    "1089": " differe",
    "1090": "irst",
    "1091": "So",
    "1092": " sure",
    "1093": " has",
    "1094": " right",
    "1095": " became",
    "1096": " been",
    "1097": "maz",
    "1098": " sound",
    "1099": " tow",
    "1100": " ru",
    "1101": " tal",
    "1102": " amaz",
    "1103": " head",
    "1104": " shout",
    "1105": " bright",
    "1106": " ye",
    "1107": " watched",
    "1108": " R",
    "1109": " mor",
    "1110": " child",
    "1111": "able",
    "1112": " mean",
    "1113": " where",
    "1114": "llow",
    "1115": " high",
    "1116": " face",
    "1117": " Sue",
    "1118": " cook",
    "1119": "day",
    "1120": "aybe",
    "1121": " watch",
    "1122": " blue",
    "1123": "aught",
    "1124": " different",
    "1125": " store",
    "1126": " N",
    "1127": " goodbye",
    "1128": " dress",
    "1129": "ull",
    "1130": " Bob",
    "1131": "ng",
    "1132": "ange",
    "1133": " squ",
    "1134": " okay",
    "1135": "isy",
    "1136": " Mommy",
    "1137": "lease",
    "1138": " voice",
    "1139": "Jo",
    "1140": "ath",
    "1141": " Spot",
    "1142": " night",
    "1143": " us",
    "1144": " boat",
    "1145": " flowers",
    "1146": " place",
    "1147": " follow",
    "1148": " ar",
    "1149": " use",
    "1150": " closer",
    "1151": "unny",
    "1152": "leep",
    "1153": "ired",
    "1154": " fav",
    "1155": " yell",
    "1156": " grabbed",
    "1157": " curi",
    "1158": " warm",
    "1159": " forg",
    "1160": " cr",
    "1161": " Sarah",
    "1162": " John",
    "1163": " mag",
    "1164": " stick",
    "1165": "We",
    "1166": " jumped",
    "1167": " cake",
    "1168": "more",
    "1169": " tell",
    "1170": " anymore",
    "1171": "After",
    "1172": " butter",
    "1173": "ndma",
    "1174": " three",
    "1175": " ask",
    "1176": "co",
    "1177": " our",
    "1178": "lie",
    "1179": " curious",
    "1180": "ount",
    "1181": "orn",
    "1182": " cont",
    "1183": " fell",
    "1184": "ached",
    "1185": " birds",
    "1186": " Th",
    "1187": "ass",
    "1188": "Her",
    "1189": "iss",
    "1190": " helped",
    "1191": " pull",
    "1192": " Jane",
    "1193": "itc",
    "1194": " first",
    "1195": " block",
    "1196": " hop",
    "1197": " bit",
    "1198": " dr",
    "1199": " realized",
    "1200": " kid",
    "1201": "Look",
    "1202": "ila",
    "1203": " mon",
    "1204": " brother",
    "1205": "Anna",
    "1206": "Sara",
    "1207": " z",
    "1208": " Everyone",
    "1209": " ate",
    "1210": " does",
    "1211": "imes",
    "1212": " happened",
    "1213": " stop",
    "1214": "zy",
    "1215": " yummy",
    "1216": " favor",
    "1217": "ppy",
    "1218": "itchen",
    "1219": " kitchen",
    "1220": " sweet",
    "1221": "us",
    "1222": " really",
    "1223": " per",
    "1224": "aisy",
    "1225": " grass",
    "1226": " favorite",
    "1227": " began",
    "1228": " rest",
    "1229": " ready",
    "1230": " lea",
    "1231": " underst",
    "1232": " reached",
    "1233": "air",
    "1234": " ste",
    "1235": " story",
    "1236": " bunny",
    "1237": " As",
    "1238": "'re",
    "1239": " pain",
    "1240": " sing",
    "1241": "ster",
    "1242": " sand",
    "1243": " only",
    "1244": " here",
    "1245": " flo",
    "1246": " am",
    "1247": " glad",
    "1248": " tri",
    "1249": " beh",
    "1250": " world",
    "1251": " open",
    "1252": " cre",
    "1253": "fully",
    "1254": " prin",
    "1255": "where",
    "1256": "arent",
    "1257": " flower",
    "1258": " through",
    "1259": " fire",
    "1260": " ba",
    "1261": " done",
    "1262": " having",
    "1263": " thing",
    "1264": " delic",
    "1265": " himself",
    "1266": " tired",
    "1267": " parent",
    "1268": " soft",
    "1269": "Timmy",
    "1270": " fro",
    "1271": " tast",
    "1272": " butterf",
    "1273": " Let",
    "1274": " why",
    "1275": " part",
    "1276": " cut",
    "1277": "ken",
    "1278": " mess",
    "1279": "Can",
    "1280": " worry",
    "1281": "Mommy",
    "1282": "iver",
    "1283": " din",
    "1284": "uff",
    "1285": "ater",
    "1286": " magic",
    "1287": " waved",
    "1288": " shouted",
    "1289": " pond",
    "1290": " kids",
    "1291": " hat",
    "1292": " sees",
    "1293": " duck",
    "1294": "olly",
    "1295": "illed",
    "1296": " game",
    "1297": "ient",
    "1298": " making",
    "1299": "ather",
    "1300": "John",
    "1301": "As",
    "1302": "akes",
    "1303": " catch",
    "1304": " seen",
    "1305": " cool",
    "1306": "ation",
    "1307": " coming",
    "1308": " less",
    "1309": " used",
    "1310": " dark",
    "1311": "eddy",
    "1312": " fix",
    "1313": " Joe",
    "1314": " thank",
    "1315": "mer",
    "1316": " top",
    "1317": " lady",
    "1318": " hair",
    "1319": "aring",
    "1320": " prom",
    "1321": " hopped",
    "1322": " Can",
    "1323": "\".",
    "1324": "ign",
    "1325": " surprise",
    "1326": " draw",
    "1327": " mum",
    "1328": " mouse",
    "1329": " funny",
    "1330": "rel",
    "1331": " cra",
    "1332": "aper",
    "1333": " -",
    "1334": " full",
    "1335": " touch",
    "1336": " light",
    "1337": " spot",
    "1338": "ren",
    "1339": " dro",
    "1340": " Benny",
    "1341": " parents",
    "1342": " worked",
    "1343": "ins",
    "1344": "oney",
    "1345": " surprised",
    "1346": " Do",
    "1347": " carefully",
    "1348": " trees",
    "1349": " frog",
    "1350": " swing",
    "1351": " doing",
    "1352": "Don",
    "1353": "inally",
    "1354": " sat",
    "1355": " That",
    "1356": " ice",
    "1357": " In",
    "1358": " held",
    "1359": "Wow",
    "1360": " running",
    "1361": " pretend",
    "1362": " swim",
    "1363": " set",
    "1364": " read",
    "1365": " delicious",
    "1366": " needed",
    "1367": " tight",
    "1368": " slow",
    "1369": " remembered",
    "1370": " lost",
    "1371": " cold",
    "1372": "ards",
    "1373": " smell",
    "1374": " wood",
    "1375": " happily",
    "1376": "hy",
    "1377": "ely",
    "1378": " looks",
    "1379": " behind",
    "1380": " herself",
    "1381": " enjoyed",
    "1382": " cried",
    "1383": "ask",
    "1384": " years",
    "1385": " name",
    "1386": " hole",
    "1387": " buy",
    "1388": " blocks",
    "1389": " dri",
    "1390": " yellow",
    "1391": " sleep",
    "1392": " gi",
    "1393": "cess",
    "1394": " butterfly",
    "1395": "ued",
    "1396": "ike",
    "1397": " wished",
    "1398": " perf",
    "1399": " another",
    "1400": " green",
    "1401": " Daisy",
    "1402": " move",
    "1403": " tall",
    "1404": " bag",
    "1405": " air",
    "1406": " floor",
    "1407": " lesson",
    "1408": " cars",
    "1409": "ul",
    "1410": " bow",
    "1411": " arri",
    "1412": " window",
    "1413": " sho",
    "1414": " children",
    "1415": "ner",
    "1416": " finished",
    "1417": " hill",
    "1418": "andy",
    "1419": " After",
    "1420": "sp",
    "1421": "ens",
    "1422": " paper",
    "1423": " likes",
    "1424": "From",
    "1425": "sy",
    "1426": " hold",
    "1427": "Sam",
    "1428": " wrong",
    "1429": "reed",
    "1430": " understand",
    "1431": " contin",
    "1432": "atter",
    "1433": "uit",
    "1434": "rew",
    "1435": " gent",
    "1436": " close",
    "1437": " anything",
    "1438": " wall",
    "1439": " el",
    "1440": "asure",
    "1441": " left",
    "1442": " arrived",
    "1443": " able",
    "1444": " hun",
    "1445": "ross",
    "1446": "av",
    "1447": " hear",
    "1448": " friendly",
    "1449": " forgot",
    "1450": "ama",
    "1451": " gone",
    "1452": " creat",
    "1453": " wet",
    "1454": " lion",
    "1455": "ello",
    "1456": "Hello",
    "1457": " dream",
    "1458": " hot",
    "1459": "bo",
    "1460": "ber",
    "1461": " Sally",
    "1462": " filled",
    "1463": " dir",
    "1464": "ield",
    "1465": " cookies",
    "1466": ".â",
    "1467": " laugh",
    "1468": " dinner",
    "1469": " broken",
    "1470": "lf",
    "1471": " else",
    "1472": " hid",
    "1473": "ced",
    "1474": " pink",
    "1475": " followed",
    "1476": " table",
    "1477": "\n ",
    "1478": " mar",
    "1479": " colors",
    "1480": "oup",
    "1481": " moment",
    "1482": " continued",
    "1483": " wonderful",
    "1484": " Em",
    "1485": "ey",
    "1486": "irrel",
    "1487": "ined",
    "1488": "rot",
    "1489": " finally",
    "1490": " arm",
    "1491": "Jack",
    "1492": " might",
    "1493": " Now",
    "1494": " yes",
    "1495": " cast",
    "1496": " build",
    "1497": " enough",
    "1498": " Billy",
    "1499": " someone",
    "1500": " There",
    "1501": " perfect",
    "1502": " stayed",
    "1503": " fair",
    "1504": "app",
    "1505": " morning",
    "1506": " puppy",
    "1507": "ol",
    "1508": " daddy",
    "1509": " trying",
    "1510": "!â",
    "1511": "'ll",
    "1512": " ju",
    "1513": " others",
    "1514": " books",
    "1515": " mus",
    "1516": " agreed",
    "1517": " snow",
    "1518": " squirrel",
    "1519": " cream",
    "1520": "room",
    "1521": " getting",
    "1522": " grandma",
    "1523": " leaves",
    "1524": " baby",
    "1525": " Lila",
    "1526": "icy",
    "1527": " few",
    "1528": " count",
    "1529": "Then",
    "1530": "At",
    "1531": " fall",
    "1532": "gon",
    "1533": " break",
    "1534": " climbed",
    "1535": "ries",
    "1536": " beach",
    "1537": "ash",
    "1538": " please",
    "1539": " bug",
    "1540": " mother",
    "1541": " train",
    "1542": " brought",
    "1543": "ance",
    "1544": " This",
    "1545": " deep",
    "1546": " vis",
    "1547": "ated",
    "1548": "shed",
    "1549": " met",
    "1550": " Tommy",
    "1551": " wasn",
    "1552": " sometimes",
    "1553": " everything",
    "1554": "ich",
    "1555": " music",
    "1556": "key",
    "1557": "ling",
    "1558": "This",
    "1559": "os",
    "1560": " turned",
    "1561": "lc",
    "1562": " ride",
    "1563": "oring",
    "1564": "oom",
    "1565": " song",
    "1566": " spark",
    "1567": " hungry",
    "1568": " fight",
    "1569": "ons",
    "1570": " pictures",
    "1571": "ds",
    "1572": " makes",
    "1573": " sear",
    "1574": "ucky",
    "1575": " listened",
    "1576": " joy",
    "1577": " pol",
    "1578": " What",
    "1579": "ee",
    "1580": "His",
    "1581": " clot",
    "1582": " sail",
    "1583": "bble",
    "1584": "apped",
    "1585": " comp",
    "1586": " wants",
    "1587": " plan",
    "1588": " clothes",
    "1589": " poin",
    "1590": " K",
    "1591": "zz",
    "1592": " strange",
    "1593": " balloon",
    "1594": "man",
    "1595": "enny",
    "1596": " pi",
    "1597": " grow",
    "1598": " flying",
    "1599": "row",
    "1600": " scary",
    "1601": " treat",
    "1602": " waited",
    "1603": " amazed",
    "1604": " teddy",
    "1605": " castle",
    "1606": "ister",
    "1607": " ele",
    "1608": " amazing",
    "1609": "med",
    "1610": " spl",
    "1611": "Oh",
    "1612": " owner",
    "1613": " leave",
    "1614": " promised",
    "1615": " danger",
    "1616": "ever",
    "1617": "OK",
    "1618": " white",
    "1619": " such",
    "1620": " talk",
    "1621": " pat",
    "1622": "uffy",
    "1623": " fur",
    "1624": "ope",
    "1625": " pie",
    "1626": "red",
    "1627": " pulled",
    "1628": " pre",
    "1629": " woods",
    "1630": " To",
    "1631": " shared",
    "1632": " towards",
    "1633": " alone",
    "1634": "cle",
    "1635": " Maybe",
    "1636": " sit",
    "1637": " nap",
    "1638": " colorful",
    "1639": "amp",
    "1640": "ph",
    "1641": " visit",
    "1642": "ugg",
    "1643": "igg",
    "1644": "thy",
    "1645": "ence",
    "1646": "ctor",
    "1647": " tail",
    "1648": " magical",
    "1649": " river",
    "1650": " hig",
    "1651": " belie",
    "1652": " grate",
    "1653": "ually",
    "1654": "ott",
    "1655": "ang",
    "1656": " hide",
    "1657": " smiles",
    "1658": " silly",
    "1659": "ower",
    "1660": " side",
    "1661": " roll",
    "1662": "Max",
    "1663": " pro",
    "1664": " gu",
    "1665": " Amy",
    "1666": "eter",
    "1667": " grateful",
    "1668": " faster",
    "1669": " treasure",
    "1670": "ased",
    "1671": " snack",
    "1672": "up",
    "1673": "avy",
    "1674": " land",
    "1675": " moral",
    "1676": "ained",
    "1677": " sister",
    "1678": " Gra",
    "1679": " shap",
    "1680": " paint",
    "1681": " slowly",
    "1682": " field",
    "1683": " pet",
    "1684": "orm",
    "1685": " sec",
    "1686": " Jim",
    "1687": " bran",
    "1688": " must",
    "1689": " min",
    "1690": " worried",
    "1691": " helping",
    "1692": " job",
    "1693": " fox",
    "1694": "set",
    "1695": " money",
    "1696": " pot",
    "1697": " qui",
    "1698": " bel",
    "1699": " acc",
    "1700": " living",
    "1701": " monster",
    "1702": "less",
    "1703": " party",
    "1704": "ear",
    "1705": " most",
    "1706": " wear",
    "1707": " remember",
    "1708": "ire",
    "1709": " sign",
    "1710": "wl",
    "1711": " cloud",
    "1712": " candy",
    "1713": " higher",
    "1714": "ident",
    "1715": "ipped",
    "1716": " All",
    "1717": "der",
    "1718": "ze",
    "1719": " quiet",
    "1720": " town",
    "1721": "unch",
    "1722": " princess",
    "1723": "asket",
    "1724": " runs",
    "1725": "em",
    "1726": " everywhere",
    "1727": " stepped",
    "1728": " join",
    "1729": " lake",
    "1730": " basket",
    "1731": " cup",
    "1732": "sw",
    "1733": "outh",
    "1734": " carrot",
    "1735": " coll",
    "1736": " Daddy",
    "1737": " scream",
    "1738": " plant",
    "1739": " heavy",
    "1740": " cho",
    "1741": " blank",
    "1742": " bigger",
    "1743": " buck",
    "1744": " closed",
    "1745": "ises",
    "1746": " won",
    "1747": " ph",
    "1748": " answ",
    "1749": "br",
    "1750": " blanket",
    "1751": " mouth",
    "1752": "eces",
    "1753": "ames",
    "1754": " pieces",
    "1755": " eating",
    "1756": "cket",
    "1757": " welc",
    "1758": " stre",
    "1759": " wouldn",
    "1760": " reach",
    "1761": " broke",
    "1762": "eared",
    "1763": " dangerous",
    "1764": "gs",
    "1765": " Molly",
    "1766": " ce",
    "1767": " Mr",
    "1768": "ord",
    "1769": "fort",
    "1770": " dolls",
    "1771": "ming",
    "1772": " thinks",
    "1773": " dragon",
    "1774": " dance",
    "1775": " asks",
    "1776": " across",
    "1777": "Okay",
    "1778": " chair",
    "1779": " teac",
    "1780": " bott",
    "1781": "Hi",
    "1782": " pa",
    "1783": " neigh",
    "1784": " bar",
    "1785": " bike",
    "1786": " pack",
    "1787": "iting",
    "1788": " neighb",
    "1789": " disapp",
    "1790": " stuck",
    "1791": "de",
    "1792": " gif",
    "1793": " fruit",
    "1794": " believe",
    "1795": "cy",
    "1796": " ve",
    "1797": " crying",
    "1798": "phant",
    "1799": "ier",
    "1800": " suddenly",
    "1801": " soup",
    "1802": " race",
    "1803": " threw",
    "1804": "Sure",
    "1805": " farmer",
    "1806": " accident",
    "1807": " elephant",
    "1808": " dirty",
    "1809": " monkey",
    "1810": " heal",
    "1811": "weet",
    "1812": " rem",
    "1813": "ventually",
    "1814": "ored",
    "1815": " same",
    "1816": " pers",
    "1817": "ead",
    "1818": "pping",
    "1819": " gentle",
    "1820": " free",
    "1821": " brown",
    "1822": "Maybe",
    "1823": " inst",
    "1824": " bee",
    "1825": "ix",
    "1826": " ben",
    "1827": " win",
    "1828": " black",
    "1829": " longer",
    "1830": " along",
    "1831": "ible",
    "1832": " spr",
    "1833": " clapped",
    "1834": "Why",
    "1835": "Finally",
    "1836": "cked",
    "1837": " words",
    "1838": " teacher",
    "1839": " Fl",
    "1840": "chool",
    "1841": " upset",
    "1842": " piece",
    "1843": " well",
    "1844": " cheered",
    "1845": " sang",
    "1846": " hit",
    "1847": "ment",
    "1848": " bowl",
    "1849": " doctor",
    "1850": " bite",
    "1851": " Jill",
    "1852": " bucket",
    "1853": "Mia",
    "1854": " bath",
    "1855": " heart",
    "1856": " caught",
    "1857": " forget",
    "1858": " mark",
    "1859": " butt",
    "1860": " young",
    "1861": " sea",
    "1862": " dry",
    "1863": " dropped",
    "1864": " cour",
    "1865": "ourn",
    "1866": "ese",
    "1867": " yard",
    "1868": " plac",
    "1869": "bby",
    "1870": " swings",
    "1871": " school",
    "1872": " wings",
    "1873": "bs",
    "1874": " explained",
    "1875": " journ",
    "1876": " street",
    "1877": " drink",
    "1878": " bring",
    "1879": " juice",
    "1880": "ung",
    "1881": "?â",
    "1882": " nearby",
    "1883": " Emma",
    "1884": " stories",
    "1885": " smo",
    "1886": " smart",
    "1887": " pushed",
    "1888": " drove",
    "1889": " tiny",
    "1890": " pen",
    "1891": " course",
    "1892": " mine",
    "1893": " es",
    "1894": "aughter",
    "1895": " year",
    "1896": " today",
    "1897": " pocket",
    "1898": " secret",
    "1899": " je",
    "1900": " exp",
    "1901": " without",
    "1902": " singing",
    "1903": " welcome",
    "1904": " happen",
    "1905": "to",
    "1906": " stu",
    "1907": " fit",
    "1908": "vel",
    "1909": "ract",
    "1910": " bus",
    "1911": " fairy",
    "1912": " cray",
    "1913": " cheese",
    "1914": " turns",
    "1915": " jar",
    "1916": " bush",
    "1917": "llo",
    "1918": "bow",
    "1919": " exploring",
    "1920": "itting",
    "1921": " stand",
    "1922": " seemed",
    "1923": " lon",
    "1924": " spoon",
    "1925": " Finally",
    "1926": " woke",
    "1927": " games",
    "1928": "issed",
    "1929": " twins",
    "1930": " trou",
    "1931": " resp",
    "1932": " hoped",
    "1933": " lonely",
    "1934": " att",
    "1935": " ant",
    "1936": " Mama",
    "1937": "ountain",
    "1938": "orrow",
    "1939": " noises",
    "1940": " hugs",
    "1941": "yard",
    "1942": " key",
    "1943": " inv",
    "1944": " daughter",
    "1945": "ail",
    "1946": " rocks",
    "1947": " disco",
    "1948": " su",
    "1949": " lunch",
    "1950": "read",
    "1951": "oun",
    "1952": "vered",
    "1953": " backyard",
    "1954": " suc",
    "1955": " cow",
    "1956": " apple",
    "1957": "ek",
    "1958": " swam",
    "1959": " shoes",
    "1960": " stars",
    "1961": " shook",
    "1962": "ittens",
    "1963": " miss",
    "1964": "ches",
    "1965": "fused",
    "1966": " wish",
    "1967": " shapes",
    "1968": " relie",
    "1969": "urple",
    "1970": " tower",
    "1971": "shine",
    "1972": "ity",
    "1973": " moved",
    "1974": " corn",
    "1975": " though",
    "1976": " 3",
    "1977": "umb",
    "1978": " taking",
    "1979": " cir",
    "1980": "ts",
    "1981": "ape",
    "1982": " rainbow",
    "1983": " Tweet",
    "1984": " throw",
    "1985": " star",
    "1986": " bench",
    "1987": "ocked",
    "1988": " neck",
    "1989": " creature",
    "1990": " bubble",
    "1991": " late",
    "1992": " adventures",
    "1993": "ions",
    "1994": " owl",
    "1995": "And",
    "1996": " whe",
    "1997": " shell",
    "1998": " par",
    "1999": " kite",
    "2000": " Fluffy",
    "2001": "ining",
    "2002": "ilk",
    "2003": "unt",
    "2004": " mix",
    "2005": " lift",
    "2006": " fence",
    "2007": " accidentally",
    "2008": " wise",
    "2009": " hello",
    "2010": "pper",
    "2011": " spin",
    "2012": " purple",
    "2013": " onto",
    "2014": "ten",
    "2015": "ours",
    "2016": " sitting",
    "2017": "idge",
    "2018": " sunshine",
    "2019": " cute",
    "2020": " mat",
    "2021": "ward",
    "2022": " whist",
    "2023": " shop",
    "2024": " orange",
    "2025": " dist",
    "2026": "aughty",
    "2027": "Lila",
    "2028": " naughty",
    "2029": " Sammy",
    "2030": " nest",
    "2031": "ose",
    "2032": "ors",
    "2033": "lla",
    "2034": " milk",
    "2035": "fish",
    "2036": " phone",
    "2037": " boun",
    "2038": " arms",
    "2039": " af",
    "2040": " eas",
    "2041": "ness",
    "2042": " carry",
    "2043": " Grandma",
    "2044": "og",
    "2045": " instead",
    "2046": " driver",
    "2047": " bought",
    "2048": "Later",
    "2049": " talked",
    "2050": " searched",
    "2051": "gged",
    "2052": " sunny",
    "2053": " pig",
    "2054": " cozy",
    "2055": "itty",
    "2056": " feels",
    "2057": " wondered",
    "2058": " fan",
    "2059": " swimming",
    "2060": " comes",
    "2061": "uched",
    "2062": " touched",
    "2063": " pop",
    "2064": " Inside",
    "2065": "ale",
    "2066": " laughing",
    "2067": " lucky",
    "2068": " belong",
    "2069": " sounds",
    "2070": "oman",
    "2071": "let",
    "2072": " woman",
    "2073": " journey",
    "2074": " cave",
    "2075": " relieved",
    "2076": " nothing",
    "2077": " coat",
    "2078": " cou",
    "2079": " peace",
    "2080": " O",
    "2081": "adow",
    "2082": " nose",
    "2083": " busy",
    "2084": "Bob",
    "2085": " past",
    "2086": " apples",
    "2087": " sick",
    "2088": " rope",
    "2089": " patient",
    "2090": "raid",
    "2091": " pudd",
    "2092": " inc",
    "2093": " act",
    "2094": " watching",
    "2095": " branch",
    "2096": " afraid",
    "2097": "ider",
    "2098": " tom",
    "2099": " ret",
    "2100": " days",
    "2101": "cing",
    "2102": " Mary",
    "2103": " farm",
    "2104": " band",
    "2105": " huge",
    "2106": " Thank",
    "2107": "thday",
    "2108": "ator",
    "2109": " exciting",
    "2110": " danced",
    "2111": " war",
    "2112": " Soon",
    "2113": "blem",
    "2114": "ball",
    "2115": " zoom",
    "2116": " gigg",
    "2117": " vill",
    "2118": " problem",
    "2119": " mad",
    "2120": " forever",
    "2121": " collect",
    "2122": "ped",
    "2123": "irt",
    "2124": " minut",
    "2125": " wra",
    "2126": "ho",
    "2127": " life",
    "2128": " knee",
    "2129": "ces",
    "2130": "mp",
    "2131": "cer",
    "2132": "arp",
    "2133": "Do",
    "2134": " return",
    "2135": " king",
    "2136": " asleep",
    "2137": " sharp",
    "2138": " rel",
    "2139": "eth",
    "2140": " power",
    "2141": " holding",
    "2142": " healthy",
    "2143": " fing",
    "2144": " prot",
    "2145": " Mittens",
    "2146": " meet",
    "2147": " spotted",
    "2148": " organ",
    "2149": " clever",
    "2150": "alm",
    "2151": " letter",
    "2152": " gather",
    "2153": "ere",
    "2154": "Of",
    "2155": " storm",
    "2156": " round",
    "2157": " protect",
    "2158": " gift",
    "2159": "amed",
    "2160": " mail",
    "2161": " birthday",
    "2162": " Jen",
    "2163": " pres",
    "2164": " saf",
    "2165": " neighbor",
    "2166": "epend",
    "2167": " takes",
    "2168": "sc",
    "2169": " ear",
    "2170": " comfort",
    "2171": " rep",
    "2172": " ent",
    "2173": " person",
    "2174": " smiling",
    "2175": " pointed",
    "2176": " gently",
    "2177": " With",
    "2178": " Jimmy",
    "2179": "ular",
    "2180": "owed",
    "2181": "col",
    "2182": "Every",
    "2183": " tasty",
    "2184": " spo",
    "2185": "sting",
    "2186": " plane",
    "2187": "itten",
    "2188": "itch",
    "2189": "hin",
    "2190": " pill",
    "2191": " pass",
    "2192": " honey",
    "2193": " tasted",
    "2194": " smelled",
    "2195": " matter",
    "2196": " adm",
    "2197": "ove",
    "2198": "nic",
    "2199": " shining",
    "2200": " eag",
    "2201": "Hey",
    "2202": " places",
    "2203": " hope",
    "2204": " respect",
    "2205": " picnic",
    "2206": " kick",
    "2207": " bottle",
    "2208": " Ch",
    "2209": " supp",
    "2210": " blew",
    "2211": " appeared",
    "2212": " Come",
    "2213": "board",
    "2214": "Tommy",
    "2215": " spider",
    "2216": " intere",
    "2217": " cheer",
    "2218": " wearing",
    "2219": " present",
    "2220": "ize",
    "2221": "ert",
    "2222": " trouble",
    "2223": " mist",
    "2224": " trip",
    "2225": " quest",
    "2226": " pract",
    "2227": " kiss",
    "2228": "ond",
    "2229": " tightly",
    "2230": " loves",
    "2231": " ash",
    "2232": "gg",
    "2233": "arge",
    "2234": " sur",
    "2235": " spread",
    "2236": "umber",
    "2237": "ones",
    "2238": "aur",
    "2239": " wide",
    "2240": " feather",
    "2241": " splas",
    "2242": "ont",
    "2243": "ndp",
    "2244": " whole",
    "2245": " later",
    "2246": " bread",
    "2247": " anyone",
    "2248": "ella",
    "2249": "Molly",
    "2250": " rec",
    "2251": " des",
    "2252": "oph",
    "2253": " road",
    "2254": "cean",
    "2255": "In",
    "2256": " ocean",
    "2257": " giant",
    "2258": "els",
    "2259": " puzz",
    "2260": " cookie",
    "2261": " screamed",
    "2262": " path",
    "2263": " pan",
    "2264": " confused",
    "2265": " clouds",
    "2266": "eb",
    "2267": " impress",
    "2268": " front",
    "2269": " Go",
    "2270": " seat",
    "2271": "lex",
    "2272": " which",
    "2273": " lay",
    "2274": "la",
    "2275": " thin",
    "2276": " teach",
    "2277": "erly",
    "2278": "ungle",
    "2279": " di",
    "2280": " answer",
    "2281": "ssed",
    "2282": " ap",
    "2283": "ub",
    "2284": "hile",
    "2285": " promise",
    "2286": " large",
    "2287": " jungle",
    "2288": " ser",
    "2289": " ber",
    "2290": "oose",
    "2291": "ndpa",
    "2292": " wild",
    "2293": " mach",
    "2294": " button",
    "2295": " bark",
    "2296": "Good",
    "2297": " village",
    "2298": " snake",
    "2299": " myster",
    "2300": " hor",
    "2301": " Emily",
    "2302": "Come",
    "2303": " tool",
    "2304": " puts",
    "2305": " last",
    "2306": " imag",
    "2307": " Jake",
    "2308": "lebr",
    "2309": "Lucy",
    "2310": " tid",
    "2311": " slid",
    "2312": " eventually",
    "2313": " ban",
    "2314": " wave",
    "2315": " live",
    "2316": " crayons",
    "2317": " chased",
    "2318": " celebr",
    "2319": " Everywhere",
    "2320": "Just",
    "2321": " write",
    "2322": " spent",
    "2323": " gives",
    "2324": "unk",
    "2325": "ife",
    "2326": " foot",
    "2327": " delight",
    "2328": " decor",
    "2329": " sol",
    "2330": " sandw",
    "2331": " dirt",
    "2332": " treats",
    "2333": " talking",
    "2334": " Jenny",
    "2335": "ching",
    "2336": " waiting",
    "2337": " snowman",
    "2338": " interesting",
    "2339": " hiding",
    "2340": " cart",
    "2341": "ony",
    "2342": " taste",
    "2343": " shelf",
    "2344": " hon",
    "2345": "een",
    "2346": " step",
    "2347": "Mum",
    "2348": "Jim",
    "2349": " helpful",
    "2350": " feet",
    "2351": " val",
    "2352": " shy",
    "2353": " goes",
    "2354": " stood",
    "2355": " shr",
    "2356": " emb",
    "2357": " building",
    "2358": " stret",
    "2359": " oven",
    "2360": " lovely",
    "2361": " ducks",
    "2362": " corner",
    "2363": "cks",
    "2364": " wash",
    "2365": " spe",
    "2366": " rolled",
    "2367": " pretended",
    "2368": " rude",
    "2369": "old",
    "2370": " zoo",
    "2371": " tidy",
    "2372": " teeth",
    "2373": " puddle",
    "2374": " pile",
    "2375": " jumping",
    "2376": " calm",
    "2377": "ipe",
    "2378": "iger",
    "2379": "Mama",
    "2380": " bugs",
    "2381": " ashamed",
    "2382": "ina",
    "2383": " bat",
    "2384": " Re",
    "2385": " stra",
    "2386": " ob",
    "2387": " whistle",
    "2388": " banan",
    "2389": " St",
    "2390": "not",
    "2391": " net",
    "2392": " forgive",
    "2393": " prince",
    "2394": "ener",
    "2395": " shirt",
    "2396": " sel",
    "2397": " embar",
    "2398": " coo",
    "2399": "umpy",
    "2400": " sparkly",
    "2401": " remind",
    "2402": " success",
    "2403": " sug",
    "2404": " mind",
    "2405": " embarra",
    "2406": " cannot",
    "2407": " cross",
    "2408": "Soon",
    "2409": " worm",
    "2410": " sharing",
    "2411": " peaceful",
    "2412": " mot",
    "2413": " fold",
    "2414": " wore",
    "2415": " mountain",
    "2416": " blow",
    "2417": "lice",
    "2418": " furry",
    "2419": " bell",
    "2420": " ign",
    "2421": " grab",
    "2422": "ometimes",
    "2423": "als",
    "2424": " whenever",
    "2425": " pour",
    "2426": "vous",
    "2427": "llie",
    "2428": " sugar",
    "2429": " push",
    "2430": " machine",
    "2431": " breath",
    "2432": " creative",
    "2433": " chick",
    "2434": "ned",
    "2435": "St",
    "2436": " tries",
    "2437": " stir",
    "2438": " dolp",
    "2439": " bal",
    "2440": "Now",
    "2441": " lad",
    "2442": " Le",
    "2443": "ult",
    "2444": "ork",
    "2445": " spray",
    "2446": " sal",
    "2447": " pool",
    "2448": " med",
    "2449": " gener",
    "2450": " ship",
    "2451": "isa",
    "2452": "ian",
    "2453": " selfish",
    "2454": " hel",
    "2455": " hum",
    "2456": " messy",
    "2457": " har",
    "2458": " faces",
    "2459": " ple",
    "2460": " gold",
    "2461": " chocol",
    "2462": " Some",
    "2463": " How",
    "2464": " '",
    "2465": "Please",
    "2466": " pillow",
    "2467": " minutes",
    "2468": "ighed",
    "2469": "aking",
    "2470": "My",
    "2471": " van",
    "2472": " tun",
    "2473": " missed",
    "2474": " fixed",
    "2475": " fighting",
    "2476": "oin",
    "2477": " fig",
    "2478": " embarrassed",
    "2479": " tomorrow",
    "2480": " meant",
    "2481": " drive",
    "2482": "Sarah",
    "2483": " spicy",
    "2484": " ner",
    "2485": " ladder",
    "2486": " knowing",
    "2487": " hours",
    "2488": " ca",
    "2489": " Please",
    "2490": "ital",
    "2491": " horse",
    "2492": "ato",
    "2493": " ug",
    "2494": " trust",
    "2495": " Just",
    "2496": "spital",
    "2497": " ugly",
    "2498": " hospital",
    "2499": " nervous",
    "2500": " easy",
    "2501": " chew",
    "2502": " bedroom",
    "2503": " thankful",
    "2504": " rob",
    "2505": " carrots",
    "2506": "elly",
    "2507": " grew",
    "2508": " couch",
    "2509": " colour",
    "2510": " barked",
    "2511": "Dad",
    "2512": " understood",
    "2513": " taught",
    "2514": " nut",
    "2515": " meadow",
    "2516": " disappoin",
    "2517": "assed",
    "2518": "ano",
    "2519": " passed",
    "2520": " often",
    "2521": " class",
    "2522": " landed",
    "2523": " knocked",
    "2524": "ird",
    "2525": " mud",
    "2526": " mic",
    "2527": " fear",
    "2528": " coin",
    "2529": "work",
    "2530": " deter",
    "2531": " returned",
    "2532": " reg",
    "2533": " determ",
    "2534": " hur",
    "2535": " finish",
    "2536": "izz",
    "2537": " tea",
    "2538": " smooth",
    "2539": "mo",
    "2540": " stuff",
    "2541": " mov",
    "2542": " generous",
    "2543": " On",
    "2544": "isp",
    "2545": "To",
    "2546": " drum",
    "2547": "obby",
    "2548": " robot",
    "2549": " bubbles",
    "2550": " these",
    "2551": " seed",
    "2552": " glass",
    "2553": " disappointed",
    "2554": "ground",
    "2555": " ring",
    "2556": " moon",
    "2557": " hears",
    "2558": " chocolate",
    "2559": " carried",
    "2560": " card",
    "2561": " snacks",
    "2562": " leaf",
    "2563": " fancy",
    "2564": " circ",
    "2565": "ustr",
    "2566": "dle",
    "2567": " spend",
    "2568": " songs",
    "2569": " crab",
    "2570": " Ann",
    "2571": "pack",
    "2572": "osaur",
    "2573": "ecially",
    "2574": " pir",
    "2575": " sold",
    "2576": " sleepy",
    "2577": " honest",
    "2578": " bridge",
    "2579": " Even",
    "2580": " paw",
    "2581": " mir",
    "2582": " Br",
    "2583": "pecially",
    "2584": "izzy",
    "2585": " wolf",
    "2586": " especially",
    "2587": " dinosaur",
    "2588": " chest",
    "2589": " av",
    "2590": " Why",
    "2591": "ory",
    "2592": " map",
    "2593": " group",
    "2594": " gathered",
    "2595": " gas",
    "2596": " change",
    "2597": " splash",
    "2598": " sour",
    "2599": " poor",
    "2600": " waves",
    "2601": " mysterious",
    "2602": " forward",
    "2603": " clown",
    "2604": "ror",
    "2605": " frustr",
    "2606": " craw",
    "2607": " body",
    "2608": " whisp",
    "2609": " twirl",
    "2610": " string",
    "2611": " smelly",
    "2612": " rad",
    "2613": " pin",
    "2614": " ok",
    "2615": " fake",
    "2616": " Together",
    "2617": "sist",
    "2618": " scar",
    "2619": " neckl",
    "2620": " gate",
    "2621": " cand",
    "2622": " Kitty",
    "2623": "Billy",
    "2624": " motor",
    "2625": "ying",
    "2626": "urse",
    "2627": "ote",
    "2628": " shore",
    "2629": " jew",
    "2630": " weak",
    "2631": " grumpy",
    "2632": " finger",
    "2633": " sack",
    "2634": " polite",
    "2635": " kitten",
    "2636": " glue",
    "2637": "uce",
    "2638": "airs",
    "2639": " number",
    "2640": " mirror",
    "2641": " esc",
    "2642": "most",
    "2643": " vase",
    "2644": " sheep",
    "2645": " plants",
    "2646": " berries",
    "2647": "den",
    "2648": "Be",
    "2649": " jelly",
    "2650": "itter",
    "2651": " scr",
    "2652": " puzzle",
    "2653": " necklace",
    "2654": " gray",
    "2655": " emp",
    "2656": " Their",
    "2657": "usie",
    "2658": " plate",
    "2659": " maybe",
    "2660": " frustrated",
    "2661": " empty",
    "2662": " almost",
    "2663": "port",
    "2664": "orry",
    "2665": "ensive",
    "2666": " thick",
    "2667": " skipped",
    "2668": " jam",
    "2669": "aged",
    "2670": " hidden",
    "2671": " expensive",
    "2672": " determined",
    "2673": " closet",
    "2674": " Teddy",
    "2675": " legs",
    "2676": " lit",
    "2677": " hopping",
    "2678": " drew",
    "2679": " bored",
    "2680": "ates",
    "2681": "There",
    "2682": " sticks",
    "2683": " Sometimes",
    "2684": " police",
    "2685": " ones",
    "2686": " fruits",
    "2687": " birdie",
    "2688": " Don",
    "2689": " At",
    "2690": "ots",
    "2691": "aul",
    "2692": " wis",
    "2693": " tick",
    "2694": " stone",
    "2695": " line",
    "2696": " figure",
    "2697": " dogs",
    "2698": " bake",
    "2699": " aunt",
    "2700": "Jane",
    "2701": " sight",
    "2702": " moving",
    "2703": " content",
    "2704": " cries",
    "2705": " Brown",
    "2706": " Be",
    "2707": "box",
    "2708": "?\".",
    "2709": " splashed",
    "2710": " saved",
    "2711": " powerful",
    "2712": " packed",
    "2713": " cloth",
    "2714": " branches",
    "2715": "ested",
    "2716": " yelled",
    "2717": " feed",
    "2718": "oop",
    "2719": "kin",
    "2720": "iddle",
    "2721": "dge",
    "2722": "Where",
    "2723": " taken",
    "2724": " tiger",
    "2725": " spoil",
    "2726": " pay",
    "2727": " exam",
    "2728": " crane",
    "2729": " Bella",
    "2730": "'d",
    "2731": " hang",
    "2732": " flag",
    "2733": " discovered",
    "2734": " answered",
    "2735": " Leo",
    "2736": "ush",
    "2737": " standing",
    "2738": " seek",
    "2739": " save",
    "2740": " pray",
    "2741": " jog",
    "2742": " excite",
    "2743": " dolphin",
    "2744": " jack",
    "2745": "rag",
    "2746": "era",
    "2747": "Are",
    "2748": " flut",
    "2749": "getable",
    "2750": " lock",
    "2751": " incred",
    "2752": " excitement",
    "2753": " boring",
    "2754": "ola",
    "2755": " wip",
    "2756": " soap",
    "2757": " sighed",
    "2758": " pleased",
    "2759": " jacket",
    "2760": " fis",
    "2761": " fill",
    "2762": " Mum",
    "2763": "light",
    "2764": " wrote",
    "2765": " sugg",
    "2766": " organized",
    "2767": " middle",
    "2768": " eld",
    "2769": " balloons",
    "2770": "que",
    "2771": " sailed",
    "2772": "Their",
    "2773": " tells",
    "2774": " vegetable",
    "2775": " stones",
    "2776": " spun",
    "2777": " oy",
    "2778": " board",
    "2779": "lies",
    "2780": "iness",
    "2781": " working",
    "2782": " ind",
    "2783": "lower",
    "2784": "iff",
    "2785": "alk",
    "2786": "Stop",
    "2787": " scarf",
    "2788": " parrot",
    "2789": "body",
    "2790": "asing",
    "2791": " wagged",
    "2792": " tears",
    "2793": " measure",
    "2794": " comfortable",
    "2795": " clap",
    "2796": " true",
    "2797": " swan",
    "2798": " smoke",
    "2799": " leg",
    "2800": " incredible",
    "2801": " fright",
    "2802": " feathers",
    "2803": " drop",
    "2804": "ual",
    "2805": "ggs",
    "2806": " tie",
    "2807": " pus",
    "2808": " movie",
    "2809": " lose",
    "2810": " eager",
    "2811": " cap",
    "2812": "oof",
    "2813": "fic",
    "2814": " rid",
    "2815": " eggs",
    "2816": " covered",
    "2817": " cop",
    "2818": " record",
    "2819": " lem",
    "2820": " grap",
    "2821": " fil",
    "2822": " disappeared",
    "2823": " ord",
    "2824": " giggled",
    "2825": " ext",
    "2826": " TV",
    "2827": " Bl",
    "2828": "corn",
    "2829": " yourself",
    "2830": " rare",
    "2831": " pri",
    "2832": " ham",
    "2833": " eng",
    "2834": " Johnny",
    "2835": " whale",
    "2836": " team",
    "2837": " knife",
    "2838": " Lisa",
    "2839": "zed",
    "2840": " wrap",
    "2841": " test",
    "2842": " questions",
    "2843": " libr",
    "2844": " dizzy",
    "2845": " bone",
    "2846": "iv",
    "2847": "apping",
    "2848": " straw",
    "2849": " stamp",
    "2850": " noisy",
    "2851": " licked",
    "2852": " lying",
    "2853": " kindness",
    "2854": " drawing",
    "2855": " diffic",
    "2856": "ately",
    "2857": "Jimmy",
    "2858": " wagon",
    "2859": " rocket",
    "2860": " popcorn",
    "2861": " grown",
    "2862": " burn",
    "2863": "Sally",
    "2864": " wand",
    "2865": " sword",
    "2866": " lifted",
    "2867": " happening",
    "2868": " extra",
    "2869": " balance",
    "2870": " batter",
    "2871": " anc",
    "2872": " End",
    "2873": "ha",
    "2874": "Sorry",
    "2875": " wander",
    "2876": " track",
    "2877": " smaller",
    "2878": " mistake",
    "2879": " fat",
    "2880": " become",
    "2881": " Mark",
    "2882": " Ella",
    "2883": "selves",
    "2884": "ating",
    "2885": " toast",
    "2886": " managed",
    "2887": " harm",
    "2888": " difficult",
    "2889": " bathroom",
    "2890": " Peter",
    "2891": " twist",
    "2892": " ruined",
    "2893": " offered",
    "2894": " match",
    "2895": " ancient",
    "2896": "illi",
    "2897": " gar",
    "2898": " distance",
    "2899": " playground",
    "2900": " lazy",
    "2901": " dancing",
    "2902": " adventur",
    "2903": "ormal",
    "2904": "af",
    "2905": " once",
    "2906": " crown",
    "2907": " cleaned",
    "2908": " calling",
    "2909": " Ba",
    "2910": " walks",
    "2911": " sell",
    "2912": " frightened",
    "2913": " boss",
    "2914": "erri",
    "2915": "emo",
    "2916": " mask",
    "2917": " fluffy",
    "2918": " yog",
    "2919": " picks",
    "2920": " normal",
    "2921": " frag",
    "2922": " eye",
    "2923": " drank",
    "2924": " dest",
    "2925": " circle",
    "2926": " adventurous",
    "2927": " Z",
    "2928": "issors",
    "2929": "ict",
    "2930": " trunk",
    "2931": " tent",
    "2932": " shells",
    "2933": " scissors",
    "2934": " press",
    "2935": " kissed",
    "2936": " gets",
    "2937": " enjoying",
    "2938": " elderly",
    "2939": " check",
    "2940": " Little",
    "2941": "ages",
    "2942": "Spot",
    "2943": " toug",
    "2944": " terri",
    "2945": " steal",
    "2946": "ready",
    "2947": "ete",
    "2948": "Me",
    "2949": " study",
    "2950": " juicy",
    "2951": " already",
    "2952": "erp",
    "2953": " towel",
    "2954": " pizz",
    "2955": " louder",
    "2956": " horn",
    "2957": " circles",
    "2958": " allig",
    "2959": " tough",
    "2960": " tele",
    "2961": " slipped",
    "2962": " rose",
    "2963": " roar",
    "2964": " lead",
    "2965": " famous",
    "2966": " cheerful",
    "2967": " arg",
    "2968": " Rex",
    "2969": "ipper",
    "2970": " sweetie",
    "2971": " fool",
    "2972": " engine",
    "2973": " deer",
    "2974": " dish",
    "2975": " dig",
    "2976": " barn",
    "2977": " against",
    "2978": " yours",
    "2979": " spinning",
    "2980": " needs",
    "2981": " father",
    "2982": " cover",
    "2983": " bags",
    "2984": " ed",
    "2985": "anged",
    "2986": "amond",
    "2987": "Sue",
    "2988": "Joe",
    "2989": " yarn",
    "2990": " sandwich",
    "2991": " independ",
    "2992": " giving",
    "2993": " fragile",
    "2994": " diamond",
    "2995": " aw",
    "2996": "cept",
    "2997": "Who",
    "2998": " twig",
    "2999": " suggested",
    "3000": " nosy",
    "3001": " lemon",
    "3002": " hurts",
    "3003": "orge",
    "3004": "ination",
    "3005": "iest",
    "3006": "ache",
    "3007": " relax",
    "3008": " realised",
    "3009": " nod",
    "3010": " hose",
    "3011": " hammer",
    "3012": " frown",
    "3013": " boxes",
    "3014": " bloom",
    "3015": " weird",
    "3016": " mod",
    "3017": " crack",
    "3018": " alligator",
    "3019": " added",
    "3020": "rage",
    "3021": "oot",
    "3022": "Gra",
    "3023": "Amy",
    "3024": " vegetables",
    "3025": " shake",
    "3026": " learning",
    "3027": "elp",
    "3028": " trap",
    "3029": " stubb",
    "3030": " melt",
    "3031": " collar",
    "3032": " add",
    "3033": " Susie",
    "3034": " Bobby",
    "3035": "ique",
    "3036": " stubborn",
    "3037": " search",
    "3038": " pizza",
    "3039": " pump",
    "3040": " loudly",
    "3041": " independent",
    "3042": " chicken",
    "3043": " borrow",
    "3044": "illiant",
    "3045": "erpill",
    "3046": " strawber",
    "3047": " snee",
    "3048": " ref",
    "3049": " queen",
    "3050": " invited",
    "3051": " foolish",
    "3052": " flash",
    "3053": " decide",
    "3054": " caterpill",
    "3055": " asking",
    "3056": " Rose",
    "3057": "urkey",
    "3058": "gy",
    "3059": " unique",
    "3060": " stri",
    "3061": " pee",
    "3062": " knight",
    "3063": " guit",
    "3064": " escape",
    "3065": " depend",
    "3066": " comb",
    "3067": " colourful",
    "3068": " clear",
    "3069": " buttons",
    "3070": " brilliant",
    "3071": " boys",
    "3072": " Tweety",
    "3073": " skin",
    "3074": " saying",
    "3075": " rode",
    "3076": " rich",
    "3077": " garage",
    "3078": " Bu",
    "3079": "ured",
    "3080": "dom",
    "3081": "Help",
    "3082": " mummy",
    "3083": " beak",
    "3084": "edient",
    "3085": "eorge",
    "3086": "aw",
    "3087": " unus",
    "3088": " turkey",
    "3089": " oyster",
    "3090": " wiped",
    "3091": " week",
    "3092": " unusual",
    "3093": " rubb",
    "3094": " regular",
    "3095": " patter",
    "3096": " guitar",
    "3097": " fountain",
    "3098": " counted",
    "3099": " chase",
    "3100": " OK",
    "3101": "mbre",
    "3102": "land",
    "3103": " walls",
    "3104": " umbre",
    "3105": " successful",
    "3106": " shows",
    "3107": " pattern",
    "3108": " lights",
    "3109": " jewel",
    "3110": " fork",
    "3111": " dreamed",
    "3112": " banana",
    "3113": "ray",
    "3114": "inal",
    "3115": "imed",
    "3116": "cil",
    "3117": " tools",
    "3118": " swe",
    "3119": " safely",
    "3120": " pencil",
    "3121": " low",
    "3122": " cryst",
    "3123": "ceed",
    "3124": "Well",
    "3125": " tape",
    "3126": " stream",
    "3127": " resc",
    "3128": " market",
    "3129": " impressed",
    "3130": " harder",
    "3131": " guess",
    "3132": " bottom",
    "3133": " above",
    "3134": "olog",
    "3135": "illa",
    "3136": "iginal",
    "3137": "anut",
    "3138": " waff",
    "3139": " peanut",
    "3140": " patch",
    "3141": " notice",
    "3142": " nods",
    "3143": " crawled",
    "3144": " caterpillar",
    "3145": "umbled",
    "3146": "na",
    "3147": " tire",
    "3148": " task",
    "3149": " tank",
    "3150": " solve",
    "3151": " load",
    "3152": " gun",
    "3153": " compet",
    "3154": " apolog",
    "3155": "hip",
    "3156": "fast",
    "3157": "arl",
    "3158": "Mummy",
    "3159": "How",
    "3160": " shone",
    "3161": " original",
    "3162": " glow",
    "3163": " fier",
    "3164": " edge",
    "3165": " ears",
    "3166": " dependable",
    "3167": " breakfast",
    "3168": " brush",
    "3169": " bitter",
    "3170": " admired",
    "3171": " Nemo",
    "3172": " Fin",
    "3173": " Blue",
    "3174": " No",
    "3175": "uth",
    "3176": "und",
    "3177": " stronger",
    "3178": " clay",
    "3179": " bossy",
    "3180": " If",
    "3181": "aser",
    "3182": " scrat",
    "3183": " picking",
    "3184": " medic",
    "3185": " knows",
    "3186": " joke",
    "3187": " grandpa",
    "3188": " cudd",
    "3189": " boats",
    "3190": " bald",
    "3191": "uggled",
    "3192": " succeed",
    "3193": " raft",
    "3194": " penny",
    "3195": " obedient",
    "3196": " library",
    "3197": " lean",
    "3198": " humble",
    "3199": " cone",
    "3200": "head",
    "3201": "Re",
    "3202": "Here",
    "3203": " tray",
    "3204": " terrible",
    "3205": " square",
    "3206": " sounded",
    "3207": " sauce",
    "3208": " proudly",
    "3209": " numb",
    "3210": " fierce",
    "3211": " crystal",
    "3212": " Bear",
    "3213": "inary",
    "3214": "Jill",
    "3215": " witch",
    "3216": " happiness",
    "3217": " handed",
    "3218": " fridge",
    "3219": " Lola",
    "3220": "fa",
    "3221": "ention",
    "3222": " wheel",
    "3223": " umbrella",
    "3224": " raven",
    "3225": " rough",
    "3226": " mighty",
    "3227": " joined",
    "3228": " chose",
    "3229": " changed",
    "3230": "imp",
    "3231": "arry",
    "3232": " tag",
    "3233": " squee",
    "3234": " ow",
    "3235": " medicine",
    "3236": " helps",
    "3237": " firework",
    "3238": " finding",
    "3239": " cleaning",
    "3240": " cri",
    "3241": " Bill",
    "3242": "met",
    "3243": "azz",
    "3244": " surf",
    "3245": " playful",
    "3246": " locked",
    "3247": " goat",
    "3248": " competit",
    "3249": " compass",
    "3250": " accept",
    "3251": " Mar",
    "3252": "uring",
    "3253": "kn",
    "3254": "ext",
    "3255": " valu",
    "3256": " sy",
    "3257": " parade",
    "3258": " mixed",
    "3259": " helmet",
    "3260": " guard",
    "3261": " discover",
    "3262": " crayon",
    "3263": " chir",
    "3264": " butterflies",
    "3265": " beet",
    "3266": " balls",
    "3267": " Ellie",
    "3268": " Brownie",
    "3269": "ud",
    "3270": "squ",
    "3271": "ophie",
    "3272": "ject",
    "3273": "ature",
    "3274": "Em",
    "3275": " stove",
    "3276": " raced",
    "3277": " persist",
    "3278": " nicely",
    "3279": " mole",
    "3280": " march",
    "3281": " laughs",
    "3282": " kinds",
    "3283": " island",
    "3284": " gum",
    "3285": " falls",
    "3286": " cost",
    "3287": " Baby",
    "3288": "squit",
    "3289": "squito",
    "3290": "ience",
    "3291": "Alice",
    "3292": " trump",
    "3293": " serious",
    "3294": " mosquito",
    "3295": " goose",
    "3296": " coins",
    "3297": " cage",
    "3298": "elon",
    "3299": " unl",
    "3300": " trumpet",
    "3301": " numbers",
    "3302": " guil",
    "3303": " flex",
    "3304": " explored",
    "3305": " excla",
    "3306": " choose",
    "3307": " cro",
    "3308": " brothers",
    "3309": "ormous",
    "3310": "iew",
    "3311": " view",
    "3312": " practice",
    "3313": " moms",
    "3314": " fireman",
    "3315": " enormous",
    "3316": " Mrs",
    "3317": " icy",
    "3318": "wards",
    "3319": " volc",
    "3320": " valuable",
    "3321": " sup",
    "3322": " pointing",
    "3323": " means",
    "3324": " guilty",
    "3325": " flexible",
    "3326": " exclaimed",
    "3327": "yal",
    "3328": "known",
    "3329": "ision",
    "3330": " volcano",
    "3331": " useful",
    "3332": " phot",
    "3333": " pipe",
    "3334": " favour",
    "3335": " crazy",
    "3336": " cam",
    "3337": " My",
    "3338": "omed",
    "3339": "llip",
    "3340": "llipop",
    "3341": " wake",
    "3342": " seal",
    "3343": " scare",
    "3344": " popular",
    "3345": " marble",
    "3346": " lollipop",
    "3347": " forth",
    "3348": " flashlight",
    "3349": " compassion",
    "3350": " city",
    "3351": " brightly",
    "3352": " allowed",
    "3353": "redient",
    "3354": "ingredient",
    "3355": "erry",
    "3356": "!\".",
    "3357": " unknown",
    "3358": " stat",
    "3359": " shoot",
    "3360": " shel",
    "3361": " sil",
    "3362": " hats",
    "3363": " hunt",
    "3364": " favourite",
    "3365": " dull",
    "3366": " belonged",
    "3367": " ingredient",
    "3368": " U",
    "3369": " twirled",
    "3370": " super",
    "3371": " seeds",
    "3372": " pil",
    "3373": " loyal",
    "3374": " kicked",
    "3375": " dreams",
    "3376": " brace",
    "3377": " Whenever",
    "3378": "time",
    "3379": "ophone",
    "3380": "ations",
    "3381": " whispered",
    "3382": " ways",
    "3383": " trucks",
    "3384": " sofa",
    "3385": " showing",
    "3386": " shark",
    "3387": " sadly",
    "3388": " repe",
    "3389": " poured",
    "3390": " pirate",
    "3391": " impressive",
    "3392": " harmless",
    "3393": " fine",
    "3394": " delicate",
    "3395": " bees",
    "3396": " anx",
    "3397": " Mike",
    "3398": "arth",
    "3399": "aroo",
    "3400": "angaroo",
    "3401": "ado",
    "3402": "aff",
    "3403": "Benny",
    "3404": " using",
    "3405": " turt",
    "3406": " tied",
    "3407": " shape",
    "3408": " rushed",
    "3409": " persistent",
    "3410": " handle",
    "3411": " grace",
    "3412": " enc",
    "3413": " deliver",
    "3414": " bushes",
    "3415": ",â",
    "3416": " office",
    "3417": " kangaroo",
    "3418": " gor",
    "3419": " anxious",
    "3420": " ang",
    "3421": " Sp",
    "3422": "iable",
    "3423": "alous",
    "3424": "Go",
    "3425": " wrapped",
    "3426": " spell",
    "3427": " potato",
    "3428": " jealous",
    "3429": " While",
    "3430": "urtain",
    "3431": " reliable",
    "3432": " log",
    "3433": " four",
    "3434": " coal",
    "3435": " curtain",
    "3436": "mbol",
    "3437": "aches",
    "3438": "Daisy",
    "3439": " sudden",
    "3440": " painted",
    "3441": " cere",
    "3442": " Toby",
    "3443": " Pe",
    "3444": "uddy",
    "3445": "ouses",
    "3446": "gu",
    "3447": " those",
    "3448": " tummy",
    "3449": " symbol",
    "3450": " metal",
    "3451": " cush",
    "3452": " camera",
    "3453": " beetle",
    "3454": "ilt",
    "3455": " houses",
    "3456": " gorilla",
    "3457": " delighted",
    "3458": " celebrate",
    "3459": "keep",
    "3460": "irsty",
    "3461": " warned",
    "3462": " travel",
    "3463": " tooth",
    "3464": " space",
    "3465": " soldier",
    "3466": " shiver",
    "3467": " rubbed",
    "3468": " reward",
    "3469": " print",
    "3470": " motorcy",
    "3471": " marry",
    "3472": " driving",
    "3473": "upid",
    "3474": "ief",
    "3475": "cod",
    "3476": "cut",
    "3477": "arlie",
    "3478": " tunn",
    "3479": " tor",
    "3480": " thinking",
    "3481": " temp",
    "3482": " son",
    "3483": " hung",
    "3484": " hero",
    "3485": " growing",
    "3486": " excitedly",
    "3487": " carp",
    "3488": " Pete",
    "3489": " Bobo",
    "3490": "icycle",
    "3491": "ipp",
    "3492": "cu",
    "3493": "While",
    "3494": " yet",
    "3495": " vine",
    "3496": " reminded",
    "3497": " prep",
    "3498": " ordinary",
    "3499": " hay",
    "3500": " gasped",
    "3501": " flute",
    "3502": " crocod",
    "3503": " acorn",
    "3504": " spoiled",
    "3505": " pup",
    "3506": " hurry",
    "3507": " creatures",
    "3508": " cur",
    "3509": " amb",
    "3510": " Mandy",
    "3511": " Bet",
    "3512": "ugged",
    "3513": "coa",
    "3514": " wheat",
    "3515": " times",
    "3516": " support",
    "3517": " stupid",
    "3518": " skull",
    "3519": " shine",
    "3520": " resist",
    "3521": " rice",
    "3522": " missing",
    "3523": " mis",
    "3524": " law",
    "3525": " ingredients",
    "3526": "loo",
    "3527": "ery",
    "3528": "arsh",
    "3529": "aid",
    "3530": " washed",
    "3531": " trick",
    "3532": " spilled",
    "3533": " sett",
    "3534": " scoot",
    "3535": " mule",
    "3536": " moder",
    "3537": " meal",
    "3538": " filthy",
    "3539": " dove",
    "3540": " case",
    "3541": " bounce",
    "3542": " Tweetie",
    "3543": " Ducky",
    "3544": " word",
    "3545": " weal",
    "3546": " thirsty",
    "3547": " steps",
    "3548": " stumbled",
    "3549": " soar",
    "3550": " seem",
    "3551": " lively",
    "3552": " lab",
    "3553": " hairy",
    "3554": " hoop",
    "3555": " fre",
    "3556": " crawl",
    "3557": " cereal",
    "3558": " carpet",
    "3559": " bracelet",
    "3560": " badly",
    "3561": " base",
    "3562": " Fr",
    "3563": " Dave",
    "3564": "ither",
    "3565": " wool",
    "3566": " truth",
    "3567": " placed",
    "3568": " nuts",
    "3569": " goal",
    "3570": " early",
    "3571": " disg",
    "3572": " decorate",
    "3573": " compl",
    "3574": " cheap",
    "3575": " backpack",
    "3576": "usting",
    "3577": "ices",
    "3578": "gging",
    "3579": "cream",
    "3580": "Ow",
    "3581": " themselves",
    "3582": " telling",
    "3583": " swinging",
    "3584": " sparkled",
    "3585": " scatter",
    "3586": " scale",
    "3587": " news",
    "3588": " helpless",
    "3589": " env",
    "3590": " clum",
    "3591": " carrying",
    "3592": " bump",
    "3593": "ric",
    "3594": "ines",
    "3595": " sne",
    "3596": " peeked",
    "3597": " pale",
    "3598": " friendship",
    "3599": " falling",
    "3600": " doesn",
    "3601": " compassionate",
    "3602": " comput",
    "3603": " careless",
    "3604": "vice",
    "3605": "com",
    "3606": " turtle",
    "3607": " stage",
    "3608": " send",
    "3609": " pige",
    "3610": " pebble",
    "3611": " mem",
    "3612": " fingers",
    "3613": " cube",
    "3614": " courage",
    "3615": " chasing",
    "3616": " chalk",
    "3617": " Everything",
    "3618": "bled",
    "3619": " sleeping",
    "3620": " shaking",
    "3621": " sink",
    "3622": " neighbour",
    "3623": " modern",
    "3624": " micr",
    "3625": " disgusting",
    "3626": " clumsy",
    "3627": " bicycle",
    "3628": "ulance",
    "3629": "iches",
    "3630": "gest",
    "3631": "If",
    "3632": " triang",
    "3633": " spoke",
    "3634": " practiced",
    "3635": " nail",
    "3636": " hook",
    "3637": " ending",
    "3638": " dead",
    "3639": " computer",
    "3640": " cher",
    "3641": " bul",
    "3642": " biggest",
    "3643": " ambulance",
    "3644": "keeper",
    "3645": "ibb",
    "3646": " wallet",
    "3647": " station",
    "3648": " package",
    "3649": " microphone",
    "3650": " lamp",
    "3651": " cushion",
    "3652": " crocodile",
    "3653": " char",
    "3654": " Today",
    "3655": "under",
    "3656": " thoughtful",
    "3657": " pumpkin",
    "3658": " pengu",
    "3659": " jolly",
    "3660": " costum",
    "3661": " Alex",
    "3662": "imi",
    "3663": " univer",
    "3664": " statue",
    "3665": " stairs",
    "3666": " question",
    "3667": " pony",
    "3668": " opens",
    "3669": " ol",
    "3670": " knock",
    "3671": " intell",
    "3672": " grand",
    "3673": " five",
    "3674": " dreaming",
    "3675": " dough",
    "3676": " brighter",
    "3677": " bounced",
    "3678": "isk",
    "3679": "hino",
    "3680": "Everyone",
    "3681": " wealthy",
    "3682": " wine",
    "3683": " shoe",
    "3684": " perm",
    "3685": " pepper",
    "3686": " painting",
    "3687": " intellig",
    "3688": " elev",
    "3689": " cocoa",
    "3690": " beauty",
    "3691": " Your",
    "3692": " Alice",
    "3693": "ucked",
    "3694": "noon",
    "3695": "ans",
    "3696": " torn",
    "3697": " starts",
    "3698": " suit",
    "3699": " neat",
    "3700": " nature",
    "3701": " mild",
    "3702": " happier",
    "3703": " elevator",
    "3704": " afternoon",
    "3705": " â",
    "3706": "ti",
    "3707": "orant",
    "3708": "illie",
    "3709": "gen",
    "3710": "atient",
    "3711": " ten",
    "3712": " speed",
    "3713": " searching",
    "3714": " reading",
    "3715": " rece",
    "3716": " ped",
    "3717": " jet",
    "3718": " harsh",
    "3719": " basketball",
    "3720": " barber",
    "3721": " Red",
    "3722": "aulif",
    "3723": "awn",
    "3724": "See",
    "3725": " stack",
    "3726": " slides",
    "3727": " sandwiches",
    "3728": " riding",
    "3729": " magn",
    "3730": " leaving",
    "3731": " fresh",
    "3732": " design",
    "3733": " cupboard",
    "3734": " clock",
    "3735": " candle",
    "3736": " Mummy",
    "3737": " Give",
    "3738": "oppy",
    "3739": "auliflower",
    "3740": " tunnel",
    "3741": " ticket",
    "3742": " shocked",
    "3743": " respectful",
    "3744": " jumps",
    "3745": " haircut",
    "3746": " encou",
    "3747": " ener",
    "3748": " cooking",
    "3749": "reen",
    "3750": "ailable",
    "3751": "Give",
    "3752": " yawn",
    "3753": " wheels",
    "3754": " value",
    "3755": " thief",
    "3756": " sorts",
    "3757": " sle",
    "3758": " prize",
    "3759": " may",
    "3760": " impatient",
    "3761": " fort",
    "3762": " create",
    "3763": " alert",
    "3764": " \n",
    "3765": "ye",
    "3766": "iron",
    "3767": "ince",
    "3768": "het",
    "3769": "Mary",
    "3770": " scooter",
    "3771": " salad",
    "3772": " sent",
    "3773": " rescue",
    "3774": " mush",
    "3775": " monkeys",
    "3776": " melon",
    "3777": " itself",
    "3778": " intelligent",
    "3779": " gem",
    "3780": " destro",
    "3781": " comet",
    "3782": " cauliflower",
    "3783": " camp",
    "3784": " bent",
    "3785": "iling",
    "3786": "hetti",
    "3787": "anger",
    "3788": "aghetti",
    "3789": "az",
    "3790": " scold",
    "3791": " roof",
    "3792": " rhino",
    "3793": " motorcycle",
    "3794": " micro",
    "3795": " ignorant",
    "3796": " graceful",
    "3797": " exper",
    "3798": " dug",
    "3799": " barking",
    "3800": " bananas",
    "3801": " available",
    "3802": "ummer",
    "3803": "scope",
    "3804": "hood",
    "3805": " stretched",
    "3806": " spaghetti",
    "3807": " paid",
    "3808": " microscope",
    "3809": " fearful",
    "3810": " earth",
    "3811": " bull",
    "3812": " boots",
    "3813": " behave",
    "3814": " avo",
    "3815": " anywhere",
    "3816": " agree",
    "3817": " Sn",
    "3818": " Kim",
    "3819": " George",
    "3820": "io",
    "3821": "ebook",
    "3822": " stops",
    "3823": " sniff",
    "3824": " pigeon",
    "3825": " perform",
    "3826": " older",
    "3827": " notebook",
    "3828": " mushroom",
    "3829": " further",
    "3830": " envious",
    "3831": " advice",
    "3832": " Eventually",
    "3833": "ubby",
    "3834": "orable",
    "3835": "fortable",
    "3836": "comfortable",
    "3837": "ats",
    "3838": " yogurt",
    "3839": " vide",
    "3840": " uncomfortable",
    "3841": " tomato",
    "3842": " thunder",
    "3843": " temple",
    "3844": " shouting",
    "3845": " prov",
    "3846": " pun",
    "3847": " object",
    "3848": " nurse",
    "3849": " meeting",
    "3850": " drawer",
    "3851": " clapping",
    "3852": " built",
    "3853": " arrow",
    "3854": " Cl",
    "3855": "ues",
    "3856": "ef",
    "3857": " switch",
    "3858": " skip",
    "3859": " loop",
    "3860": " counting",
    "3861": " cooked",
    "3862": " chubby",
    "3863": " adorable",
    "3864": " Tony",
    "3865": "opter",
    "3866": "istol",
    "3867": "icopter",
    "3868": "enry",
    "3869": "arian",
    "3870": " troubled",
    "3871": " stared",
    "3872": " snuggled",
    "3873": " shut",
    "3874": " quite",
    "3875": " pistol",
    "3876": " helicopter",
    "3877": " giggle",
    "3878": " fisher",
    "3879": " blowing",
    "3880": " Grandpa",
    "3881": "par",
    "3882": "ooped",
    "3883": "ips",
    "3884": "host",
    "3885": " treasures",
    "3886": " stirred",
    "3887": " pushing",
    "3888": " passport",
    "3889": " nowhere",
    "3890": " marched",
    "3891": " forgave",
    "3892": " destroy",
    "3893": " competitive",
    "3894": " Sophie",
    "3895": "tter",
    "3896": "play",
    "3897": "opard",
    "3898": "oe",
    "3899": "kelet",
    "3900": "htub",
    "3901": "anic",
    "3902": "aked",
    "3903": "Yay",
    "3904": " triangle",
    "3905": " separ",
    "3906": " rubber",
    "3907": " repair",
    "3908": " reef",
    "3909": " gir",
    "3910": " ghost",
    "3911": " football",
    "3912": " envel",
    "3913": " breat",
    "3914": " bathtub",
    "3915": " angel",
    "3916": "uct",
    "3917": "ebra",
    "3918": "ctus",
    "3919": "chanic",
    "3920": " zebra",
    "3921": " shouldn",
    "3922": " nobody",
    "3923": " names",
    "3924": " mill",
    "3925": " leopard",
    "3926": " led",
    "3927": " holds",
    "3928": " given",
    "3929": " enth",
    "3930": " barrel",
    "3931": " bandage",
    "3932": " anyway",
    "3933": " Sh",
    "3934": "year",
    "3935": "ube",
    "3936": "ives",
    "3937": "ceros",
    "3938": "Daddy",
    "3939": " speak",
    "3940": " shield",
    "3941": " ribb",
    "3942": " por",
    "3943": " pand",
    "3944": " otter",
    "3945": " musician",
    "3946": " mechanic",
    "3947": " display",
    "3948": " disag",
    "3949": " cactus",
    "3950": " cab",
    "3951": " bulb",
    "3952": " Betsy",
    "3953": "xy",
    "3954": "oomy",
    "3955": "ikes",
    "3956": "eath",
    "3957": "Ch",
    "3958": " windows",
    "3959": " tube",
    "3960": " summer",
    "3961": " skelet",
    "3962": " rhinoceros",
    "3963": " purse",
    "3964": " knob",
    "3965": " gifted",
    "3966": " colours",
    "3967": " cartoon",
    "3968": " ahead",
    "3969": "heart",
    "3970": "gl",
    "3971": "apa",
    "3972": " sweater",
    "3973": " shovel",
    "3974": " screw",
    "3975": " size",
    "3976": " raining",
    "3977": " penguin",
    "3978": " mint",
    "3979": " jellyfish",
    "3980": " hoping",
    "3981": " flour",
    "3982": " envelope",
    "3983": " enthus",
    "3984": " dishes",
    "3985": " charming",
    "3986": " cabin",
    "3987": " blin",
    "3988": " bet",
    "3989": " Miss",
    "3990": "rec",
    "3991": " writing",
    "3992": " waffle",
    "3993": " unpack",
    "3994": " trash",
    "3995": " thread",
    "3996": " staff",
    "3997": " rolling",
    "3998": " pant",
    "3999": " liz",
    "4000": " inse",
    "4001": "erable",
    "4002": " wing",
    "4003": " stretch",
    "4004": " sheet",
    "4005": " shadow",
    "4006": " roared",
    "4007": " organize",
    "4008": " muff",
    "4009": " grapes",
    "4010": " ceiling",
    "4011": " attic",
    "4012": " airport",
    "4013": " Buddy",
    "4014": " iron",
    "4015": " salt",
    "4016": " piano",
    "4017": " obs",
    "4018": " miserable",
    "4019": " Would",
    "4020": " Inst",
    "4021": " Are",
    "4022": "reci",
    "4023": " zoomed",
    "4024": " strugg",
    "4025": " sticky",
    "4026": " screen",
    "4027": " refused",
    "4028": " obser",
    "4029": " needle",
    "4030": " medal",
    "4031": " magnet",
    "4032": " imagined",
    "4033": " headed",
    "4034": " freez",
    "4035": " dess",
    "4036": " cord",
    "4037": " bears",
    "4038": " Dan",
    "4039": " Andy",
    "4040": "glass",
    "4041": " sailor",
    "4042": " minute",
    "4043": " lives",
    "4044": " fisherman",
    "4045": " appreci",
    "4046": " Pat",
    "4047": " Al",
    "4048": " er",
    "4049": "vision",
    "4050": "reeze",
    "4051": "glasses",
    "4052": "aled",
    "4053": " sunglasses",
    "4054": " strawberry",
    "4055": " slept",
    "4056": " rules",
    "4057": " rat",
    "4058": " post",
    "4059": " lizard",
    "4060": " frogs",
    "4061": " deaf",
    "4062": " cheek",
    "4063": " chance",
    "4064": " brus",
    "4065": " airpl",
    "4066": " God",
    "4067": "Grandma",
    "4068": " sandbox",
    "4069": " rod",
    "4070": " restless",
    "4071": " porch",
    "4072": " pilot",
    "4073": " order",
    "4074": " message",
    "4075": " meas",
    "4076": " luck",
    "4077": " inf",
    "4078": " golden",
    "4079": " complet",
    "4080": " beep",
    "4081": " attract",
    "4082": " Joey",
    "4083": " Bunny",
    "4084": "undry",
    "4085": "ses",
    "4086": "ler",
    "4087": "inde",
    "4088": "aused",
    "4089": "apers",
    "4090": " wire",
    "4091": " vend",
    "4092": " stranger",
    "4093": " stickers",
    "4094": " spring",
    "4095": " somewhere",
    "4096": " silver",
    "4097": " shade",
    "4098": " perfectly",
    "4099": " panda",
    "4100": " laundry",
    "4101": " impro",
    "4102": " battery",
    "4103": " admire",
    "4104": " Su",
    "4105": " Mimi",
    "4106": " Charlie",
    "4107": " wishes",
    "4108": " trave",
    "4109": " trop",
    "4110": " television",
    "4111": " reinde",
    "4112": " putting",
    "4113": " gloomy",
    "4114": " cats",
    "4115": " cards",
    "4116": " buzz",
    "4117": " bikes",
    "4118": "urb",
    "4119": "une",
    "4120": "mand",
    "4121": "house",
    "4122": "gn",
    "4123": "Little",
    "4124": " trophy",
    "4125": " towers",
    "4126": " sweetheart",
    "4127": " steak",
    "4128": " skeleton",
    "4129": " pretending",
    "4130": " pressed",
    "4131": " listening",
    "4132": " incl",
    "4133": " energy",
    "4134": " ended",
    "4135": " Maria",
    "4136": "opus",
    "4137": "men",
    "4138": "edy",
    "4139": "ecause",
    "4140": "axi",
    "4141": "Jenny",
    "4142": " tricks",
    "4143": " reco",
    "4144": " planet",
    "4145": " petals",
    "4146": " letters",
    "4147": " insect",
    "4148": " hall",
    "4149": " evening",
    "4150": " dessert",
    "4151": " cob",
    "4152": " chirp",
    "4153": " apologized",
    "4154": " Look",
    "4155": " Instead",
    "4156": "ison",
    "4157": "htray",
    "4158": "ctory",
    "4159": " weigh",
    "4160": " vendor",
    "4161": " stud",
    "4162": " softly",
    "4163": " pole",
    "4164": " magaz",
    "4165": " kitty",
    "4166": " hut",
    "4167": " explain",
    "4168": " cobw",
    "4169": " ashtray",
    "4170": " Here",
    "4171": "night",
    "4172": "come",
    "4173": " wife",
    "4174": " uncle",
    "4175": " sunf",
    "4176": " sort",
    "4177": " shelter",
    "4178": " polish",
    "4179": " peek",
    "4180": " pit",
    "4181": " pages",
    "4182": " pad",
    "4183": " newsp",
    "4184": " meat",
    "4185": " leaned",
    "4186": " holes",
    "4187": " half",
    "4188": " forgotten",
    "4189": " disturb",
    "4190": " dive",
    "4191": " ax",
    "4192": "zzy",
    "4193": "ilet",
    "4194": "eve",
    "4195": "cast",
    "4196": " sunset",
    "4197": " sandcast",
    "4198": " rub",
    "4199": " quar",
    "4200": " peach",
    "4201": " miner",
    "4202": " married",
    "4203": " hunter",
    "4204": " eaten",
    "4205": " axe",
    "4206": " aer",
    "4207": "unately",
    "4208": "opl",
    "4209": "ipping",
    "4210": "hero",
    "4211": "happy",
    "4212": " worth",
    "4213": " toilet",
    "4214": " superhero",
    "4215": " recogn",
    "4216": " rug",
    "4217": " pirates",
    "4218": " hadn",
    "4219": " distant",
    "4220": " dust",
    "4221": " cups",
    "4222": " blueber",
    "4223": " baking",
    "4224": " aeropl",
    "4225": "urch",
    "4226": "uby",
    "4227": "sely",
    "4228": "ills",
    "4229": "ected",
    "4230": " zip",
    "4231": " unhappy",
    "4232": " taxi",
    "4233": " strip",
    "4234": " radish",
    "4235": " pasta",
    "4236": " lid",
    "4237": " insist",
    "4238": " grabs",
    "4239": " freezer",
    "4240": " factory",
    "4241": " closely",
    "4242": " attractive",
    "4243": " airplane",
    "4244": " Will",
    "4245": " Papa",
    "4246": "aws",
    "4247": "alley",
    "4248": " â",
    "4249": " video",
    "4250": " trail",
    "4251": " tut",
    "4252": " sprayed",
    "4253": " snap",
    "4254": " shouts",
    "4255": " pine",
    "4256": " marbles",
    "4257": " lend",
    "4258": " itch",
    "4259": " infant",
    "4260": " finds",
    "4261": " fields",
    "4262": " fu",
    "4263": " celebrated",
    "4264": " Wh",
    "4265": " Ted",
    "4266": "ween",
    "4267": "astic",
    "4268": "Emma",
    "4269": " yach",
    "4270": " weather",
    "4271": " valley",
    "4272": " tub",
    "4273": " surround",
    "4274": " short",
    "4275": " popped",
    "4276": " lightning",
    "4277": " grape",
    "4278": " discu",
    "4279": " climbing",
    "4280": " cell",
    "4281": " bur",
    "4282": " Bun",
    "4283": "stic",
    "4284": "seum",
    "4285": "right",
    "4286": "mm",
    "4287": "iform",
    "4288": "fee",
    "4289": "ffee",
    "4290": "ctopus",
    "4291": "Thanks",
    "4292": " yacht",
    "4293": " uniform",
    "4294": " stom",
    "4295": " scolded",
    "4296": " photo",
    "4297": " octopus",
    "4298": " museum",
    "4299": " modest",
    "4300": " mama",
    "4301": " hipp",
    "4302": " drawings",
    "4303": " country",
    "4304": " blinked",
    "4305": " Sm",
    "4306": " Fred",
    "4307": "igloo",
    "4308": "iastic",
    "4309": "ari",
    "4310": "Qu",
    "4311": " visited",
    "4312": " tap",
    "4313": " rever",
    "4314": " prevent",
    "4315": " pow",
    "4316": " oak",
    "4317": " kneel",
    "4318": " invest",
    "4319": " enthusiastic",
    "4320": " delay",
    "4321": " cooler",
    "4322": " belt",
    "4323": " breeze",
    "4324": " attention",
    "4325": " appl",
    "4326": " igloo",
    "4327": "stairs",
    "4328": "robe",
    "4329": "osie",
    "4330": "ories",
    "4331": "icer",
    "4332": "ggy",
    "4333": "Today",
    "4334": "Eventually",
    "4335": " wigg",
    "4336": " throwing",
    "4337": " reindeer",
    "4338": " puddles",
    "4339": " paws",
    "4340": " pair",
    "4341": " kingdom",
    "4342": " entered",
    "4343": " coffee",
    "4344": "una",
    "4345": "ival",
    "4346": "erc",
    "4347": "amber",
    "4348": " yield",
    "4349": " toes",
    "4350": " steam",
    "4351": " split",
    "4352": " second",
    "4353": " quarrel",
    "4354": " napkin",
    "4355": " lions",
    "4356": " investig",
    "4357": " hippo",
    "4358": " frame",
    "4359": " flame",
    "4360": " dear",
    "4361": " conf",
    "4362": " checked",
    "4363": " Harry",
    "4364": "stri",
    "4365": "chie",
    "4366": "agg",
    "4367": " zipper",
    "4368": " vest",
    "4369": " ur",
    "4370": " spir",
    "4371": " radio",
    "4372": " raz",
    "4373": " rise",
    "4374": " pushes",
    "4375": " desk",
    "4376": " costume",
    "4377": " chain",
    "4378": " anch",
    "4379": "aurant",
    "4380": " unlock",
    "4381": " sprink",
    "4382": " papers",
    "4383": " math",
    "4384": " journal",
    "4385": " greedy",
    "4386": " exerc",
    "4387": " either",
    "4388": " club",
    "4389": " claws",
    "4390": " chamber",
    "4391": " baseball",
    "4392": " ants",
    "4393": " Where",
    "4394": "sing",
    "4395": "omas",
    "4396": "Your",
    "4397": " winter",
    "4398": " vi",
    "4399": " tutor",
    "4400": " tucked",
    "4401": " squash",
    "4402": " suff",
    "4403": " restaurant",
    "4404": " dancer",
    "4405": " crow",
    "4406": " complain",
    "4407": " bouncing",
    "4408": " argue",
    "4409": " anchor",
    "4410": "ups",
    "4411": "place",
    "4412": "hic",
    "4413": "any",
    "4414": " vehic",
    "4415": " stuffed",
    "4416": " starting",
    "4417": " pants",
    "4418": " pal",
    "4419": " ostri",
    "4420": " mug",
    "4421": " lie",
    "4422": " investigate",
    "4423": " cricket",
    "4424": " between",
    "4425": " avoc",
    "4426": "olin",
    "4427": "Ha",
    "4428": " waving",
    "4429": " spirit",
    "4430": " signs",
    "4431": " shoulder",
    "4432": " since",
    "4433": " ranch",
    "4434": " pulls",
    "4435": " maze",
    "4436": " leash",
    "4437": " imagination",
    "4438": " hedge",
    "4439": " flapped",
    "4440": " fest",
    "4441": " experience",
    "4442": " egg",
    "4443": " church",
    "4444": " Smith",
    "4445": " Jess",
    "4446": "urnit",
    "4447": "urniture",
    "4448": "uckily",
    "4449": "omes",
    "4450": "osed",
    "4451": "ippery",
    "4452": "ides",
    "4453": "ero",
    "4454": " slippery",
    "4455": " seeing",
    "4456": " saus",
    "4457": " reve",
    "4458": " razor",
    "4459": " poke",
    "4460": " palace",
    "4461": " newspaper",
    "4462": " jeep",
    "4463": " grin",
    "4464": " frowned",
    "4465": " flood",
    "4466": " furniture",
    "4467": " cows",
    "4468": " bury",
    "4469": " bother",
    "4470": "reek",
    "4471": "medi",
    "4472": "ionary",
    "4473": "ictionary",
    "4474": "ents",
    "4475": "aggie",
    "4476": " welcomed",
    "4477": " twink",
    "4478": " tripped",
    "4479": " thanks",
    "4480": " sunflower",
    "4481": " potatoes",
    "4482": " pinch",
    "4483": " kisses",
    "4484": " ink",
    "4485": " imagine",
    "4486": " classroom",
    "4487": " creek",
    "4488": " cared",
    "4489": " berry",
    "4490": " belongs",
    "4491": " beef",
    "4492": " bin",
    "4493": " Polly",
    "4494": " Millie",
    "4495": " May",
    "4496": "ron",
    "4497": "mediately",
    "4498": " trains",
    "4499": " mustache",
    "4500": " model",
    "4501": " demand",
    "4502": " dictionary",
    "4503": " crash",
    "4504": " art",
    "4505": " alive",
    "4506": " Ju",
    "4507": " Chr",
    "4508": "ssible",
    "4509": "nie",
    "4510": "iskers",
    "4511": "ckey",
    "4512": "antly",
    "4513": " straight",
    "4514": " splashing",
    "4515": " spear",
    "4516": " sneak",
    "4517": " sailing",
    "4518": " regret",
    "4519": " refre",
    "4520": " point",
    "4521": " memories",
    "4522": " magazine",
    "4523": " hockey",
    "4524": " hanging",
    "4525": " golf",
    "4526": " counter",
    "4527": " candles",
    "4528": " barks",
    "4529": " Un",
    "4530": "sit",
    "4531": "rod",
    "4532": "phone",
    "4533": "inking",
    "4534": "ib",
    "4535": "fortunately",
    "4536": "chair",
    "4537": "Inside",
    "4538": " veter",
    "4539": " understanding",
    "4540": " trade",
    "4541": " telephone",
    "4542": " tear",
    "4543": " squirrels",
    "4544": " sock",
    "4545": " smells",
    "4546": " requ",
    "4547": " rot",
    "4548": " rake",
    "4549": " mistakes",
    "4550": " mailbox",
    "4551": " lip",
    "4552": " laser",
    "4553": " introd",
    "4554": " fought",
    "4555": " emer",
    "4556": " caring",
    "4557": " breaks",
    "4558": "tain",
    "4559": "ites",
    "4560": "inarian",
    "4561": "bbles",
    "4562": "ait",
    "4563": " yucky",
    "4564": " veterinarian",
    "4565": " vet",
    "4566": " swung",
    "4567": " supposed",
    "4568": " separate",
    "4569": " saving",
    "4570": " quietly",
    "4571": " offer",
    "4572": " note",
    "4573": " nation",
    "4574": " kay",
    "4575": " glowing",
    "4576": " flies",
    "4577": " fireplace",
    "4578": " easily",
    "4579": " eagerly",
    "4580": " cobweb",
    "4581": " armchair",
    "4582": " Henry",
    "4583": " Cat",
    "4584": "asp",
    "4585": "achel",
    "4586": "act",
    "4587": "Next",
    "4588": "Mr",
    "4589": " shrimp",
    "4590": " puzzles",
    "4591": " pearl",
    "4592": " novel",
    "4593": " men",
    "4594": " judge",
    "4595": " jazz",
    "4596": " hotel",
    "4597": " hardly",
    "4598": " drops",
    "4599": " blankets",
    "4600": " Tr",
    "4601": " Lee",
    "4602": "aud",
    "4603": "arnt",
    "4604": "affe",
    "4605": " weep",
    "4606": " soil",
    "4607": " points",
    "4608": " poked",
    "4609": " player",
    "4610": " ostrich",
    "4611": " learnt",
    "4612": " invite",
    "4613": " feelings",
    "4614": " collected",
    "4615": " chewed",
    "4616": " cane",
    "4617": " balan",
    "4618": "nger",
    "4619": "Mmm",
    "4620": "Bye",
    "4621": " warmth",
    "4622": " wiz",
    "4623": " shrink",
    "4624": " sigh",
    "4625": " rabbits",
    "4626": " patiently",
    "4627": " item",
    "4628": " giraffe",
    "4629": " flav",
    "4630": " festival",
    "4631": " dressed",
    "4632": " decorations",
    "4633": " created",
    "4634": " coats",
    "4635": " believed",
    "4636": " bri",
    "4637": " applaud",
    "4638": " aeroplane",
    "4639": " Fo",
    "4640": "Because",
    "4641": " wizard",
    "4642": " streng",
    "4643": " shakes",
    "4644": " respons",
    "4645": " remove",
    "4646": " parts",
    "4647": " olives",
    "4648": " moves",
    "4649": " mop",
    "4650": " jogged",
    "4651": " jewelry",
    "4652": " jug",
    "4653": " instr",
    "4654": " immediately",
    "4655": " grill",
    "4656": " floated",
    "4657": " discovery",
    "4658": " curled",
    "4659": " acorns",
    "4660": " Ro",
    "4661": " Next",
    "4662": "ucet",
    "4663": "ney",
    "4664": "ety",
    "4665": "elery",
    "4666": "cakes",
    "4667": "Jake",
    "4668": " trusted",
    "4669": " tornado",
    "4670": " theater",
    "4671": " sque",
    "4672": " shrugged",
    "4673": " pear",
    "4674": " moments",
    "4675": " mall",
    "4676": " ideas",
    "4677": " homes",
    "4678": " growled",
    "4679": " gro",
    "4680": " ga",
    "4681": " faucet",
    "4682": " choice",
    "4683": " cardboard",
    "4684": " bookshe",
    "4685": " Grace",
    "4686": "low",
    "4687": "ccer",
    "4688": "Together",
    "4689": "Ok",
    "4690": " wags",
    "4691": " suffer",
    "4692": " strength",
    "4693": " solved",
    "4694": " ribbon",
    "4695": " row",
    "4696": " quit",
    "4697": " makeup",
    "4698": " knot",
    "4699": " hive",
    "4700": " fallen",
    "4701": " deeper",
    "4702": " chirping",
    "4703": " captain",
    "4704": " celery",
    "4705": " beans",
    "4706": " Jerry",
    "4707": " Clara",
    "4708": "sters",
    "4709": "ising",
    "4710": "icing",
    "4711": "hter",
    "4712": "ges",
    "4713": " wandered",
    "4714": " vanished",
    "4715": " stable",
    "4716": " soccer",
    "4717": " ringing",
    "4718": " replace",
    "4719": " pra",
    "4720": " mitten",
    "4721": " lotion",
    "4722": " letting",
    "4723": " laughter",
    "4724": " folded",
    "4725": " fog",
    "4726": " flutter",
    "4727": " eraser",
    "4728": " buried",
    "4729": " bravely",
    "4730": " bookshelf",
    "4731": " ble",
    "4732": " apart",
    "4733": " Ra",
    "4734": " People",
    "4735": "nies",
    "4736": "izes",
    "4737": "case",
    "4738": "avid",
    "4739": "allen",
    "4740": "ab",
    "4741": "Will",
    "4742": "Sammy",
    "4743": "Mandy",
    "4744": " wisdom",
    "4745": " succeeded",
    "4746": " struggling",
    "4747": " sneezed",
    "4748": " sip",
    "4749": " rhy",
    "4750": " pillows",
    "4751": " pur",
    "4752": " oper",
    "4753": " onion",
    "4754": " ignored",
    "4755": " chickens",
    "4756": " challen",
    "4757": " cable",
    "4758": " burned",
    "4759": " brain",
    "4760": " accepted",
    "4761": " Rosie",
    "4762": " Is",
    "4763": " Once",
    "4764": "sity",
    "4765": "raged",
    "4766": "ishing",
    "4767": "Lisa",
    "4768": " vehicle",
    "4769": " sparkle",
    "4770": " seas",
    "4771": " sandcastle",
    "4772": " prop",
    "4773": " page",
    "4774": " neighborhood",
    "4775": " matches",
    "4776": " lumber",
    "4777": " jogging",
    "4778": " hurting",
    "4779": " guy",
    "4780": " following",
    "4781": " fishing",
    "4782": " differen",
    "4783": " castles",
    "4784": " admir",
    "4785": " Steve",
    "4786": "vet",
    "4787": "ement",
    "4788": "Wait",
    "4789": " tuna",
    "4790": " tease",
    "4791": " skirt",
    "4792": " serve",
    "4793": " score",
    "4794": " quack",
    "4795": " presents",
    "4796": " plates",
    "4797": " paused",
    "4798": " hearts",
    "4799": " drain",
    "4800": " crossed",
    "4801": " crawling",
    "4802": " chairs",
    "4803": " amazement",
    "4804": " Ollie",
    "4805": " Lilly",
    "4806": "aped",
    "4807": " wipe",
    "4808": " violin",
    "4809": " sub",
    "4810": " sport",
    "4811": " sneeze",
    "4812": " slice",
    "4813": " settled",
    "4814": " repeat",
    "4815": " rail",
    "4816": " provide",
    "4817": " port",
    "4818": " lime",
    "4819": " fash",
    "4820": " collection",
    "4821": " cliff",
    "4822": " bookcase",
    "4823": " below",
    "4824": " Suzy",
    "4825": "utty",
    "4826": "seek",
    "4827": "riger",
    "4828": "rigerator",
    "4829": "ction",
    "4830": "Mark",
    "4831": "..",
    "4832": " worms",
    "4833": " swamp",
    "4834": " supply",
    "4835": " squeezed",
    "4836": " shopkeeper",
    "4837": " setting",
    "4838": " scooped",
    "4839": " safety",
    "4840": " refrigerator",
    "4841": " raise",
    "4842": " plastic",
    "4843": " muffin",
    "4844": " kayak",
    "4845": " incre",
    "4846": " ignore",
    "4847": " hits",
    "4848": " fashion",
    "4849": " appro",
    "4850": " Whiskers",
    "4851": " Spike",
    "4852": " Ruby",
    "4853": " Later",
    "4854": " Kate",
    "4855": "uture",
    "4856": "thm",
    "4857": "elcome",
    "4858": "asc",
    "4859": "Did",
    "4860": " university",
    "4861": " strawberries",
    "4862": " sniffed",
    "4863": " skills",
    "4864": " scattered",
    "4865": " prepare",
    "4866": " palm",
    "4867": " opera",
    "4868": " oil",
    "4869": " known",
    "4870": " keeping",
    "4871": " insisted",
    "4872": " includ",
    "4873": " image",
    "4874": " herbs",
    "4875": " helper",
    "4876": " happens",
    "4877": " grocer",
    "4878": " flap",
    "4879": " future",
    "4880": " discuss",
    "4881": " disagreed",
    "4882": " during",
    "4883": " cuddled",
    "4884": " crib",
    "4885": " complete",
    "4886": " begged",
    "4887": " avocado",
    "4888": " alright",
    "4889": " achie",
    "4890": " Kat",
    "4891": " Ab",
    "4892": "xture",
    "4893": "nam",
    "4894": "ission",
    "4895": "eside",
    "4896": "ense",
    "4897": "anges",
    "4898": " zig",
    "4899": " yoga",
    "4900": " whip",
    "4901": " weren",
    "4902": " warning",
    "4903": " vac",
    "4904": " safari",
    "4905": " rush",
    "4906": " rooms",
    "4907": " root",
    "4908": " rhythm",
    "4909": " relaxed",
    "4910": " plays",
    "4911": " permission",
    "4912": " peaches",
    "4913": " operation",
    "4914": " mineral",
    "4915": " heads",
    "4916": " hesit",
    "4917": " harb",
    "4918": " follows",
    "4919": " emergen",
    "4920": " doors",
    "4921": " buzzing",
    "4922": " bumped",
    "4923": " breathe",
    "4924": " Zoe",
    "4925": " Remy",
    "4926": " Paul",
    "4927": "shing",
    "4928": "omm",
    "4929": "ommend",
    "4930": "laire",
    "4931": "ishes",
    "4932": "inky",
    "4933": "Peter",
    "4934": "Bella",
    "4935": "'ve",
    "4936": "'.",
    "4937": " teaching",
    "4938": " stro",
    "4939": " squeeze",
    "4940": " spade",
    "4941": " soared",
    "4942": " recommend",
    "4943": " punish",
    "4944": " mention",
    "4945": " herb",
    "4946": " hated",
    "4947": " fle",
    "4948": " destroyed",
    "4949": " digg",
    "4950": " daisy",
    "4951": " bathe",
    "4952": " bun",
    "4953": " aut",
    "4954": " Freddy",
    "4955": "osity",
    "4956": "member",
    "4957": "lid",
    "4958": "ived",
    "4959": "ffic",
    "4960": "agull",
    "4961": "ah",
    "4962": "Is",
    "4963": " spending",
    "4964": " seagull",
    "4965": " reverse",
    "4966": " praised",
    "4967": " ornam",
    "4968": " mystery",
    "4969": " melted",
    "4970": " meowed",
    "4971": " mass",
    "4972": " jokes",
    "4973": " folder",
    "4974": " enter",
    "4975": " event",
    "4976": " digging",
    "4977": " continue",
    "4978": " boot",
    "4979": " beside",
    "4980": " appreciate",
    "4981": " Before",
    "4982": "walk",
    "4983": "liday",
    "4984": " wherever",
    "4985": " vacation",
    "4986": " surrounded",
    "4987": " subway",
    "4988": " sidewalk",
    "4989": " sizes",
    "4990": " leak",
    "4991": " improve",
    "4992": " holiday",
    "4993": " glove",
    "4994": " dire",
    "4995": " calls",
    "4996": " Rabbit",
    "4997": " Not",
    "4998": " Its",
    "4999": " Buzz",
    "5000": "render",
    "5001": "ls",
    "5002": "lier",
    "5003": "imney",
    "5004": "bbled",
    "5005": "arm",
    "5006": "Ann",
    "5007": " weeks",
    "5008": " unite",
    "5009": " taller",
    "5010": " sparkles",
    "5011": " socks",
    "5012": " slip",
    "5013": " poem",
    "5014": " pastry",
    "5015": " panic",
    "5016": " licks",
    "5017": " jewels",
    "5018": " hist",
    "5019": " famil",
    "5020": " fed",
    "5021": " doctors",
    "5022": " collecting",
    "5023": " cherries",
    "5024": " chimney",
    "5025": " bringing",
    "5026": " beneath",
    "5027": " Jones",
    "5028": " Help",
    "5029": "ym",
    "5030": "oral",
    "5031": "coli",
    "5032": "ccoli",
    "5033": "ascin",
    "5034": "angu",
    "5035": "amie",
    "5036": "Tweet",
    "5037": "!\",",
    "5038": " scratched",
    "5039": " ruler",
    "5040": " rust",
    "5041": " pulling",
    "5042": " planned",
    "5043": " jail",
    "5044": " isn",
    "5045": " history",
    "5046": " gym",
    "5047": " examine",
    "5048": " elephants",
    "5049": " disappear",
    "5050": " difference",
    "5051": " blood",
    "5052": " bill",
    "5053": " apron",
    "5054": " alarm",
    "5055": " Rachel",
    "5056": "tress",
    "5057": "reat",
    "5058": "ictory",
    "5059": "fied",
    "5060": "cage",
    "5061": "aspoon",
    "5062": "Kitty",
    "5063": "Jen",
    "5064": " yawned",
    "5065": " whistling",
    "5066": " traffic",
    "5067": " sticker",
    "5068": " settle",
    "5069": " sir",
    "5070": " simp",
    "5071": " restore",
    "5072": " rested",
    "5073": " painter",
    "5074": " mattress",
    "5075": " langu",
    "5076": " hate",
    "5077": " fixing",
    "5078": " fascin",
    "5079": " doggy",
    "5080": " broccoli",
    "5081": " bites",
    "5082": " birdcage",
    "5083": " attach",
    "5084": " Luna",
    "5085": " Lou",
    "5086": "te",
    "5087": "ring",
    "5088": "hins",
    "5089": "fy",
    "5090": "ena",
    "5091": "With",
    "5092": " watered",
    "5093": " twisted",
    "5094": " tremb",
    "5095": " teaspoon",
    "5096": " surrender",
    "5097": " stomach",
    "5098": " sew",
    "5099": " scratch",
    "5100": " planes",
    "5101": " myself",
    "5102": " harbor",
    "5103": " happiest",
    "5104": " gifts",
    "5105": " fireworks",
    "5106": " film",
    "5107": " emergency",
    "5108": " eagle",
    "5109": " destination",
    "5110": " blueberries",
    "5111": " actually",
    "5112": " accom",
    "5113": " True",
    "5114": " Or",
    "5115": " Nutty",
    "5116": " Liz",
    "5117": "zag",
    "5118": "uggage",
    "5119": "ira",
    "5120": "Emily",
    "5121": " veil",
    "5122": " tracks",
    "5123": " throws",
    "5124": " poison",
    "5125": " mission",
    "5126": " lily",
    "5127": " hills",
    "5128": " heat",
    "5129": " grey",
    "5130": " float",
    "5131": " earlier",
    "5132": " drinks",
    "5133": " comfy",
    "5134": " bunnies",
    "5135": " awe",
    "5136": " Thomas",
    "5137": " Snow",
    "5138": " Sunny",
    "5139": " Qu",
    "5140": "ops",
    "5141": "ium",
    "5142": "Not",
    "5143": " waste",
    "5144": " tong",
    "5145": " toe",
    "5146": " tug",
    "5147": " tide",
    "5148": " shower",
    "5149": " secrets",
    "5150": " release",
    "5151": " gotten",
    "5152": " girls",
    "5153": " bleed",
    "5154": " accompl",
    "5155": " Sharing",
    "5156": " Jazz",
    "5157": " Each",
    "5158": "mare",
    "5159": "icorn",
    "5160": "hest",
    "5161": "att",
    "5162": "All",
    "5163": " whisper",
    "5164": " unicorn",
    "5165": " stretching",
    "5166": " scur",
    "5167": " reminder",
    "5168": " possible",
    "5169": " petted",
    "5170": " nightmare",
    "5171": " loaded",
    "5172": " hurric",
    "5173": " flea",
    "5174": " fastest",
    "5175": " everyday",
    "5176": " encouraged",
    "5177": " dresses",
    "5178": " dolphins",
    "5179": " dare",
    "5180": " challenge",
    "5181": " brings",
    "5182": " billboard",
    "5183": " autom",
    "5184": " approached",
    "5185": " Sandy",
    "5186": " Penny",
    "5187": " Fro",
    "5188": " Bubbles",
    "5189": "was",
    "5190": "washer",
    "5191": "quake",
    "5192": "ddy",
    "5193": "anna",
    "5194": "amb",
    "5195": "adium",
    "5196": "Fl",
    "5197": " worse",
    "5198": " vel",
    "5199": " universe",
    "5200": " tour",
    "5201": " tore",
    "5202": " sparkling",
    "5203": " skipping",
    "5204": " poppy",
    "5205": " observe",
    "5206": " measured",
    "5207": " meow",
    "5208": " lick",
    "5209": " gust",
    "5210": " explorer",
    "5211": " exact",
    "5212": " easier",
    "5213": " earthquake",
    "5214": " dishwasher",
    "5215": " brick",
    "5216": " bend",
    "5217": " automob",
    "5218": " Annie",
    "5219": "terday",
    "5220": "omeday",
    "5221": "etch",
    "5222": "\",",
    "5223": " zigzag",
    "5224": " ward",
    "5225": " waffles",
    "5226": " thumb",
    "5227": " stadium",
    "5228": " sausage",
    "5229": " refreshed",
    "5230": " received",
    "5231": " receive",
    "5232": " reaches",
    "5233": " powder",
    "5234": " peered",
    "5235": " ours",
    "5236": " lands",
    "5237": " fuel",
    "5238": " appear",
    "5239": " Everyday",
    "5240": "izing",
    "5241": "igail",
    "5242": "ickey",
    "5243": "Welcome",
    "5244": "Sh",
    "5245": " wardrobe",
    "5246": " villag",
    "5247": " tongue",
    "5248": " teasing",
    "5249": " strike",
    "5250": " strang",
    "5251": " spoons",
    "5252": " someday",
    "5253": " prayed",
    "5254": " mountains",
    "5255": " manage",
    "5256": " mailman",
    "5257": " lawn",
    "5258": " laid",
    "5259": " invit",
    "5260": " human",
    "5261": " hers",
    "5262": " grinned",
    "5263": " exercise",
    "5264": " dried",
    "5265": " cub",
    "5266": " crept",
    "5267": " chirped",
    "5268": " Tina",
    "5269": " Josh",
    "5270": " David",
    "5271": "xygen",
    "5272": "mother",
    "5273": " workers",
    "5274": " wonders",
    "5275": " velvet",
    "5276": " resting",
    "5277": " responsible",
    "5278": " poking",
    "5279": " photos",
    "5280": " pedal",
    "5281": " lemonade",
    "5282": " ladyb",
    "5283": " hurried",
    "5284": " escaped",
    "5285": " diary",
    "5286": " crunch",
    "5287": " cherry",
    "5288": " James",
    "5289": " However",
    "5290": " Co",
    "5291": "py",
    "5292": "allow",
    "5293": "Sometimes",
    "5294": "First",
    "5295": " victory",
    "5296": " thrilled",
    "5297": " strangers",
    "5298": " spots",
    "5299": " spit",
    "5300": " sliding",
    "5301": " satis",
    "5302": " request",
    "5303": " rele",
    "5304": " pride",
    "5305": " planted",
    "5306": " owned",
    "5307": " ornament",
    "5308": " marks",
    "5309": " glowed",
    "5310": " glo",
    "5311": " file",
    "5312": " duckling",
    "5313": " discovering",
    "5314": " contain",
    "5315": " circus",
    "5316": " buckle",
    "5317": " admiring",
    "5318": " Who",
    "5319": "orses",
    "5320": "nes",
    "5321": "nesday",
    "5322": "irpy",
    "5323": "ednesday",
    "5324": "Luckily",
    "5325": "Before",
    "5326": " weight",
    "5327": " weap",
    "5328": " voices",
    "5329": " turning",
    "5330": " shopping",
    "5331": " shot",
    "5332": " recognized",
    "5333": " patterns",
    "5334": " opin",
    "5335": " missile",
    "5336": " massage",
    "5337": " junk",
    "5338": " hopes",
    "5339": " floating",
    "5340": " cabinet",
    "5341": " Have",
    "5342": " V",
    "5343": "ores",
    "5344": "oming",
    "5345": "iles",
    "5346": "iers",
    "5347": "!'",
    "5348": " works",
    "5349": " weighed",
    "5350": " washing",
    "5351": " stole",
    "5352": " soldiers",
    "5353": " quiz",
    "5354": " peanuts",
    "5355": " oranges",
    "5356": " oxygen",
    "5357": " oats",
    "5358": " marching",
    "5359": " luggage",
    "5360": " horses",
    "5361": " gear",
    "5362": " gain",
    "5363": " contro",
    "5364": " clearing",
    "5365": " Jenna",
    "5366": "rr",
    "5367": "len",
    "5368": "joyed",
    "5369": "ien",
    "5370": "ases",
    "5371": "aces",
    "5372": "George",
    "5373": " urge",
    "5374": " snapped",
    "5375": " problems",
    "5376": " overjoyed",
    "5377": " lips",
    "5378": " lets",
    "5379": " lawy",
    "5380": " language",
    "5381": " gloves",
    "5382": " exactly",
    "5383": " company",
    "5384": " climbs",
    "5385": " chores",
    "5386": " catching",
    "5387": " Wednesday",
    "5388": " See",
    "5389": " Sad",
    "5390": " Nina",
    "5391": " Je",
    "5392": "uing",
    "5393": "ude",
    "5394": "rise",
    "5395": "oved",
    "5396": "ging",
    "5397": "ecture",
    "5398": "atch",
    "5399": "Un",
    "5400": "Susie",
    "5401": "Lola",
    "5402": "Ella",
    "5403": " wanting",
    "5404": " tastes",
    "5405": " sunrise",
    "5406": " soaring",
    "5407": " shelves",
    "5408": " si",
    "5409": " radishes",
    "5410": " racing",
    "5411": " prec",
    "5412": " perfu",
    "5413": " pancakes",
    "5414": " padd",
    "5415": " none",
    "5416": " lecture",
    "5417": " dent",
    "5418": " cones",
    "5419": " cakes",
    "5420": " beamed",
    "5421": " bang",
    "5422": " anytime",
    "5423": " Good",
    "5424": "xu",
    "5425": "va",
    "5426": "uesday",
    "5427": "ucture",
    "5428": "uxu",
    "5429": "pe",
    "5430": "mble",
    "5431": "Dave",
    "5432": "Al",
    "5433": " zooming",
    "5434": " zipped",
    "5435": " whatever",
    "5436": " vroom",
    "5437": " upstairs",
    "5438": " structure",
    "5439": " sprinkles",
    "5440": " soak",
    "5441": " sits",
    "5442": " sights",
    "5443": " served",
    "5444": " prepared",
    "5445": " paints",
    "5446": " onwards",
    "5447": " olive",
    "5448": " lawyer",
    "5449": " ladybug",
    "5450": " luxu",
    "5451": " invitation",
    "5452": " hurricane",
    "5453": " flat",
    "5454": " drift",
    "5455": " caut",
    "5456": " bowed",
    "5457": " Someone",
    "5458": " Ol",
    "5459": "do",
    "5460": "Yuck",
    "5461": "Andy",
    "5462": " villagers",
    "5463": " underground",
    "5464": " surprises",
    "5465": " steel",
    "5466": " sorting",
    "5467": " screams",
    "5468": " rag",
    "5469": " prett",
    "5470": " precious",
    "5471": " perfume",
    "5472": " muddy",
    "5473": " label",
    "5474": " highest",
    "5475": " firemen",
    "5476": " fascinated",
    "5477": " crashed",
    "5478": " comforted",
    "5479": " cal",
    "5480": " area",
    "5481": " Tuesday",
    "5482": " Maggie",
    "5483": " Jamie",
    "5484": " Doggy",
    "5485": "vers",
    "5486": "rin",
    "5487": "omething",
    "5488": "ik",
    "5489": "ampoo",
    "5490": "Mike",
    "5491": " stealing",
    "5492": " slim",
    "5493": " simple",
    "5494": " revealed",
    "5495": " released",
    "5496": " pupil",
    "5497": " pies",
    "5498": " oat",
    "5499": " movies",
    "5500": " kneeled",
    "5501": " glitter",
    "5502": " freeze",
    "5503": " eff",
    "5504": " decorated",
    "5505": " cape",
    "5506": " bean",
    "5507": " bare",
    "5508": " Rob",
    "5509": "jam",
    "5510": "ex",
    "5511": "bbie",
    "5512": "aded",
    "5513": "These",
    "5514": " zero",
    "5515": " wondering",
    "5516": " wagging",
    "5517": " twigs",
    "5518": " tune",
    "5519": " studying",
    "5520": " stamps",
    "5521": " staring",
    "5522": " solut",
    "5523": " soaked",
    "5524": " slimy",
    "5525": " shampoo",
    "5526": " scoop",
    "5527": " remained",
    "5528": " properly",
    "5529": " mentioned",
    "5530": " kindly",
    "5531": " items",
    "5532": " grandmother",
    "5533": " effort",
    "5534": " bye",
    "5535": " beat",
    "5536": " Claire",
    "5537": " x",
    "5538": "uggles",
    "5539": "uctantly",
    "5540": "Yum",
    "5541": "Ouch",
    "5542": " wooden",
    "5543": " winning",
    "5544": " weapon",
    "5545": " tremble",
    "5546": " traveled",
    "5547": " talent",
    "5548": " tim",
    "5549": " stolen",
    "5550": " sty",
    "5551": " siren",
    "5552": " seats",
    "5553": " safer",
    "5554": " sadness",
    "5555": " sings",
    "5556": " rides",
    "5557": " relief",
    "5558": " regretted",
    "5559": " rained",
    "5560": " polishing",
    "5561": " ordered",
    "5562": " obe",
    "5563": " nicer",
    "5564": " mouths",
    "5565": " memory",
    "5566": " markers",
    "5567": " mister",
    "5568": " luxury",
    "5569": " inch",
    "5570": " exit",
    "5571": " equ",
    "5572": " demanded",
    "5573": " died",
    "5574": " dam",
    "5575": " curiosity",
    "5576": " cuddle",
    "5577": " cheering",
    "5578": " blackboard",
    "5579": " beg",
    "5580": " allow",
    "5581": " Jessie",
    "5582": " Chirpy",
    "5583": " 1",
    "5584": "unday",
    "5585": "neath",
    "5586": "fit",
    "5587": "eed",
    "5588": "ales",
    "5589": "Dan",
    "5590": " unlocked",
    "5591": " travell",
    "5592": " tonight",
    "5593": " studied",
    "5594": " shoulders",
    "5595": " selling",
    "5596": " repeated",
    "5597": " remain",
    "5598": " practicing",
    "5599": " opinion",
    "5600": " obey",
    "5601": " nails",
    "5602": " measuring",
    "5603": " hanger",
    "5604": " firef",
    "5605": " fetch",
    "5606": " decision",
    "5607": " crunchy",
    "5608": " control",
    "5609": " chess",
    "5610": " cautious",
    "5611": " buildings",
    "5612": " brushes",
    "5613": " brand",
    "5614": " acting",
    "5615": " accidents",
    "5616": "wo",
    "5617": "rmomet",
    "5618": "rmometer",
    "5619": "jamas",
    "5620": "bric",
    "5621": "Le",
    "5622": " warn",
    "5623": " underneath",
    "5624": " thermometer",
    "5625": " solution",
    "5626": " rang",
    "5627": " raised",
    "5628": " pencils",
    "5629": " packing",
    "5630": " outfit",
    "5631": " knelt",
    "5632": " frosting",
    "5633": " flapping",
    "5634": " fabric",
    "5635": " darkness",
    "5636": " confident",
    "5637": " boo",
    "5638": " bank",
    "5639": " Sunday",
    "5640": " Quack",
    "5641": " Am",
    "5642": "umble",
    "5643": "son",
    "5644": "irts",
    "5645": "ivery",
    "5646": "boat",
    "5647": "aster",
    "5648": "ais",
    "5649": "Ready",
    "5650": "Ex",
    "5651": " woof",
    "5652": " tip",
    "5653": " struggled",
    "5654": " struck",
    "5655": " scurried",
    "5656": " res",
    "5657": " pause",
    "5658": " neighbourhood",
    "5659": " loving",
    "5660": " lines",
    "5661": " dragged",
    "5662": " bleeding",
    "5663": " balanced",
    "5664": " automobile",
    "5665": " Snowy",
    "5666": " Sus",
    "5667": " Sure",
    "5668": " Something",
    "5669": " Mickey",
    "5670": " Lucky",
    "5671": " Ha",
    "5672": "umbs",
    "5673": "ledge",
    "5674": "indy",
    "5675": "Would",
    "5676": "Johnny",
    "5677": "Fluffy",
    "5678": " texture",
    "5679": " ranger",
    "5680": " punished",
    "5681": " pastel",
    "5682": " onions",
    "5683": " mixing",
    "5684": " entire",
    "5685": " dentist",
    "5686": " budge",
    "5687": " brushed",
    "5688": " barely",
    "5689": " attached",
    "5690": " ago",
    "5691": " Jan",
    "5692": " Anne",
    "5693": "looking",
    "5694": "ivity",
    "5695": "cc",
    "5696": "Nina",
    "5697": "Moral",
    "5698": "Fr",
    "5699": " yum",
    "5700": " whistled",
    "5701": " visiting",
    "5702": " trapped",
    "5703": " touching",
    "5704": " sunlight",
    "5705": " staying",
    "5706": " shooting",
    "5707": " rubbing",
    "5708": " reluctantly",
    "5709": " realize",
    "5710": " prune",
    "5711": " perched",
    "5712": " officer",
    "5713": " menu",
    "5714": " landsc",
    "5715": " knowledge",
    "5716": " introduce",
    "5717": " instruct",
    "5718": " guessed",
    "5719": " gazed",
    "5720": " gained",
    "5721": " families",
    "5722": " encourage",
    "5723": " eats",
    "5724": " drinking",
    "5725": " comple",
    "5726": " celebration",
    "5727": " camping",
    "5728": " breaking",
    "5729": " bunch",
    "5730": " Stop",
    "5731": " Hoppy",
    "5732": " Christ",
    "5733": " Carl",
    "5734": "riage",
    "5735": "kins",
    "5736": "ities",
    "5737": "exp",
    "5738": "ding",
    "5739": "Sophie",
    "5740": "Really",
    "5741": " vowed",
    "5742": " twinkling",
    "5743": " trembling",
    "5744": " sweeties",
    "5745": " sighs",
    "5746": " ripped",
    "5747": " printer",
    "5748": " pinched",
    "5749": " peel",
    "5750": " ourselves",
    "5751": " organizing",
    "5752": " naps",
    "5753": " navy",
    "5754": " landscape",
    "5755": " keeps",
    "5756": " instructions",
    "5757": " flavor",
    "5758": " feast",
    "5759": " disagree",
    "5760": " delivery",
    "5761": " crowd",
    "5762": " crabs",
    "5763": " copper",
    "5764": " claps",
    "5765": " chases",
    "5766": " cartoons",
    "5767": " broom",
    "5768": " baked",
    "5769": " apologize",
    "5770": " agreement",
    "5771": " Poppy",
    "5772": " Joy",
    "5773": " First",
    "5774": " Chris",
    "5775": "sted",
    "5776": "itely",
    "5777": "irm",
    "5778": "expected",
    "5779": "anes",
    "5780": "Teddy",
    "5781": "Ah",
    "5782": ".'",
    "5783": " youth",
    "5784": " worries",
    "5785": " winner",
    "5786": " swooped",
    "5787": " surface",
    "5788": " sting",
    "5789": " shivering",
    "5790": " satisfied",
    "5791": " ruin",
    "5792": " roaring",
    "5793": " purred",
    "5794": " melting",
    "5795": " giggling",
    "5796": " figured",
    "5797": " expect",
    "5798": " competition",
    "5799": " cash",
    "5800": " boom",
    "5801": " achieve",
    "5802": " Uncle",
    "5803": " Milly",
    "5804": " Matt",
    "5805": " Lu",
    "5806": " June",
    "5807": " Happy",
    "5808": " Frank",
    "5809": " For",
    "5810": " Beth",
    "5811": "â.",
    "5812": "you",
    "5813": "loe",
    "5814": "izzie",
    "5815": "eds",
    "5816": "boo",
    "5817": " timer",
    "5818": " stool",
    "5819": " spill",
    "5820": " situ",
    "5821": " shivered",
    "5822": " screaming",
    "5823": " sway",
    "5824": " recorded",
    "5825": " pouring",
    "5826": " permit",
    "5827": " parked",
    "5828": " motion",
    "5829": " lic",
    "5830": " including",
    "5831": " heav",
    "5832": " guys",
    "5833": " greet",
    "5834": " grant",
    "5835": " gle",
    "5836": " eight",
    "5837": " downstairs",
    "5838": " becoming",
    "5839": " bumpy",
    "5840": " Snuggles",
    "5841": " Mira",
    "5842": "zie",
    "5843": "usted",
    "5844": "reck",
    "5845": "mas",
    "5846": "icky",
    "5847": "bies",
    "5848": "Joey",
    "5849": "Happy",
    "5850": " yesterday",
    "5851": " wiggled",
    "5852": " vent",
    "5853": " unexpected",
    "5854": " twirling",
    "5855": " sweat",
    "5856": " supplies",
    "5857": " style",
    "5858": " stripes",
    "5859": " stirring",
    "5860": " secure",
    "5861": " rocking",
    "5862": " pajamas",
    "5863": " license",
    "5864": " introduc",
    "5865": " increase",
    "5866": " horns",
    "5867": " growling",
    "5868": " forgi",
    "5869": " decides",
    "5870": " cutting",
    "5871": " costumes",
    "5872": " chef",
    "5873": " brid",
    "5874": " bouncy",
    "5875": " blooming",
    "5876": " babies",
    "5877": " Squ",
    "5878": " Momo",
    "5879": " Lena",
    "5880": " Both",
    "5881": " Abigail",
    "5882": " Y",
    "5883": "zing",
    "5884": "ipment",
    "5885": "iggy",
    "5886": "igers",
    "5887": "hello",
    "5888": "enty",
    "5889": "anta",
    "5890": "angled",
    "5891": "Kat",
    "5892": "Alex",
    "5893": " waits",
    "5894": " west",
    "5895": " vanish",
    "5896": " treehouse",
    "5897": " ty",
    "5898": " storekeeper",
    "5899": " stair",
    "5900": " spraying",
    "5901": " sore",
    "5902": " scra",
    "5903": " sailboat",
    "5904": " six",
    "5905": " roots",
    "5906": " rescued",
    "5907": " remembers",
    "5908": " price",
    "5909": " peeking",
    "5910": " patience",
    "5911": " oysters",
    "5912": " outdo",
    "5913": " flas",
    "5914": " firm",
    "5915": " equipment",
    "5916": " drums",
    "5917": " dinosaurs",
    "5918": " conn",
    "5919": " buckets",
    "5920": " bridges",
    "5921": " ann",
    "5922": " Julie",
    "5923": " Christmas",
    "5924": "pite",
    "5925": "njoy",
    "5926": "edding",
    "5927": "cers",
    "5928": "ason",
    "5929": "asis",
    "5930": "arrow",
    "5931": "aker",
    "5932": "acob",
    "5933": "Sad",
    "5934": "Remember",
    "5935": "Pete",
    "5936": "Charlie",
    "5937": "Afterwards",
    "5938": " thorn",
    "5939": " tugged",
    "5940": " sparks",
    "5941": " sneaked",
    "5942": " situation",
    "5943": " single",
    "5944": " shed",
    "5945": " shock",
    "5946": " sides",
    "5947": " ribbons",
    "5948": " recognize",
    "5949": " pockets",
    "5950": " pets",
    "5951": " outdoors",
    "5952": " observed",
    "5953": " oasis",
    "5954": " network",
    "5955": " mixer",
    "5956": " grocery",
    "5957": " forehead",
    "5958": " freed",
    "5959": " disturbed",
    "5960": " chat",
    "5961": " cautiously",
    "5962": " cott",
    "5963": " buying",
    "5964": " bloomed",
    "5965": " blouse",
    "5966": " beha",
    "5967": " begin",
    "5968": " bones",
    "5969": " arrive",
    "5970": " argued",
    "5971": " These",
    "5972": " Put",
    "5973": " Amel",
    "5974": "ument",
    "5975": "ody",
    "5976": "iding",
    "5977": "elix",
    "5978": "ays",
    "5979": "Sp",
    "5980": "Harry",
    "5981": "Cl",
    "5982": " worker",
    "5983": " winked",
    "5984": " wid",
    "5985": " towels",
    "5986": " teaches",
    "5987": " swims",
    "5988": " stem",
    "5989": " steep",
    "5990": " spaces",
    "5991": " slap",
    "5992": " shadows",
    "5993": " reveal",
    "5994": " princesses",
    "5995": " pedals",
    "5996": " paintings",
    "5997": " pout",
    "5998": " pitch",
    "5999": " objects",
    "6000": " muffins",
    "6001": " matched",
    "6002": " machines",
    "6003": " keys",
    "6004": " froze",
    "6005": " exha",
    "6006": " crackers",
    "6007": " coloured",
    "6008": " clowns",
    "6009": " chip",
    "6010": " cashier",
    "6011": " cous",
    "6012": " burning",
    "6013": " basement",
    "6014": " Prin",
    "6015": "ustom",
    "6016": "ndar",
    "6017": "icked",
    "6018": "iar",
    "6019": "die",
    "6020": "artha",
    "6021": "alendar",
    "6022": "Mittens",
    "6023": "Henry",
    "6024": "Grandpa",
    "6025": " waist",
    "6026": " usually",
    "6027": " shined",
    "6028": " recording",
    "6029": " powers",
    "6030": " polished",
    "6031": " pleasure",
    "6032": " pigs",
    "6033": " pebbles",
    "6034": " pastels",
    "6035": " passing",
    "6036": " month",
    "6037": " marked",
    "6038": " librarian",
    "6039": " exhausted",
    "6040": " east",
    "6041": " curtains",
    "6042": " completely",
    "6043": " completed",
    "6044": " custom",
    "6045": " calendar",
    "6046": " blueberry",
    "6047": " blows",
    "6048": " bathrobe",
    "6049": " accomplish",
    "6050": " Robby",
    "6051": " Me",
    "6052": " Like",
    "6053": " Hoot",
    "6054": " Dolly",
    "6055": " Bo",
    "6056": " An",
    "6057": " Abby",
    "6058": "udo",
    "6059": "udolp",
    "6060": "udolph",
    "6061": "thank",
    "6062": "ongo",
    "6063": "onnie",
    "6064": "ley",
    "6065": "jo",
    "6066": "indr",
    "6067": "ility",
    "6068": "icha",
    "6069": "ichael",
    "6070": "hew",
    "6071": "eep",
    "6072": "cky",
    "6073": "cles",
    "6074": "ateri",
    "6075": "atul",
    "6076": "aced",
    "6077": "May",
    "6078": "Mar",
    "6079": " web",
    "6080": " snowball",
    "6081": " shirts",
    "6082": " rocked",
    "6083": " removed",
    "6084": " rainbows",
    "6085": " quacked",
    "6086": " paddled",
    "6087": " marriage",
    "6088": " mice",
    "6089": " materi",
    "6090": " leather",
    "6091": " lap",
    "6092": " keeper",
    "6093": " importance",
    "6094": " hugging",
    "6095": " however",
    "6096": " horiz",
    "6097": " glee",
    "6098": " gaze",
    "6099": " direction",
    "6100": " creation",
    "6101": " chewing",
    "6102": " cheeks",
    "6103": " bully",
    "6104": " blink",
    "6105": " bars",
    "6106": " arguing",
    "6107": " applauded",
    "6108": " Susan",
    "6109": " Mikey",
    "6110": " Jeff",
    "6111": " Hop",
    "6112": " Gr",
    "6113": "vin",
    "6114": "oed",
    "6115": "od",
    "6116": "ition",
    "6117": "ishy",
    "6118": "iled",
    "6119": "iders",
    "6120": "dam",
    "6121": "annah",
    "6122": "aky",
    "6123": "Time",
    "6124": "Or",
    "6125": "Mrs",
    "6126": " wedding",
    "6127": " tomatoes",
    "6128": " tickets",
    "6129": " strings",
    "6130": " startled",
    "6131": " squealed",
    "6132": " slapped",
    "6133": " reaching",
    "6134": " raindr",
    "6135": " project",
    "6136": " piles",
    "6137": " patted",
    "6138": " loose",
    "6139": " lollipops",
    "6140": " lung",
    "6141": " kites",
    "6142": " horizon",
    "6143": " flags",
    "6144": " filling",
    "6145": " expected",
    "6146": " deser",
    "6147": " beds",
    "6148": " Unfortunately",
    "6149": " Rudolph",
    "6150": " Jay",
    "6151": " Felix",
    "6152": " Enjoy",
    "6153": "uzzy",
    "6154": "ubb",
    "6155": "ris",
    "6156": "melon",
    "6157": "isten",
    "6158": "affes",
    "6159": "Ye",
    "6160": "Some",
    "6161": "Bobby",
    "6162": "?'",
    "6163": " younger",
    "6164": " yelling",
    "6165": " writes",
    "6166": " watermelon",
    "6167": " wreck",
    "6168": " usual",
    "6169": " urged",
    "6170": " tickled",
    "6171": " sweets",
    "6172": " stare",
    "6173": " spiders",
    "6174": " ripe",
    "6175": " pretends",
    "6176": " plenty",
    "6177": " piggy",
    "6178": " kicking",
    "6179": " interested",
    "6180": " heel",
    "6181": " groceries",
    "6182": " giraffes",
    "6183": " fairies",
    "6184": " faced",
    "6185": " dancers",
    "6186": " cuts",
    "6187": " closes",
    "6188": " burrow",
    "6189": " bedtime",
    "6190": " answers",
    "6191": " acted",
    "6192": " Suzie",
    "6193": " Santa",
    "6194": " Mel",
    "6195": " Lizzie",
    "6196": " Katie",
    "6197": " Far",
    "6198": " Did",
    "6199": "  ",
    "6200": " \n ",
    "6201": "yan",
    "6202": "urry",
    "6203": "rip",
    "6204": "rance",
    "6205": "oh",
    "6206": "lowly",
    "6207": "aby",
    "6208": "Maggie",
    "6209": " watches",
    "6210": " ventured",
    "6211": " unf",
    "6212": " tickle",
    "6213": " suggest",
    "6214": " spaceship",
    "6215": " somebody",
    "6216": " singer",
    "6217": " signed",
    "6218": " rustling",
    "6219": " protecting",
    "6220": " partic",
    "6221": " owners",
    "6222": " neighbors",
    "6223": " leaning",
    "6224": " leader",
    "6225": " leap",
    "6226": " lower",
    "6227": " inviting",
    "6228": " insects",
    "6229": " include",
    "6230": " glasses",
    "6231": " fluttering",
    "6232": " fart",
    "6233": " everybody",
    "6234": " drifted",
    "6235": " direct",
    "6236": " creating",
    "6237": " complaining",
    "6238": " chips",
    "6239": " cent",
    "6240": " caused",
    "6241": " bottles",
    "6242": " balancing",
    "6243": " Luke",
    "6244": " Katy",
    "6245": " Follow",
    "6246": " Bird",
    "6247": " Aunt",
    "6248": " Yes",
    "6249": "rious",
    "6250": "ne",
    "6251": "iggly",
    "6252": "go",
    "6253": "gers",
    "6254": "ayla",
    "6255": "avi",
    "6256": "Those",
    "6257": "Ab",
    "6258": " yells",
    "6259": " written",
    "6260": " wound",
    "6261": " tallest",
    "6262": " ti",
    "6263": " struggle",
    "6264": " sorted",
    "6265": " snail",
    "6266": " seven",
    "6267": " scaring",
    "6268": " replaced",
    "6269": " rainco",
    "6270": " pupp",
    "6271": " protected",
    "6272": " printed",
    "6273": " plucked",
    "6274": " pears",
    "6275": " monsters",
    "6276": " masks",
    "6277": " marker",
    "6278": " listens",
    "6279": " introduced",
    "6280": " goodnight",
    "6281": " gathering",
    "6282": " fault",
    "6283": " den",
    "6284": " contest",
    "6285": " confl",
    "6286": " comm",
    "6287": " candies",
    "6288": " beard",
    "6289": " awake",
    "6290": " actions",
    "6291": " ast",
    "6292": " Two",
    "6293": " Moo",
    "6294": " Luckily",
    "6295": " Lizzy",
    "6296": " King",
    "6297": " Car",
    "6298": " Buzzy",
    "6299": " Bongo",
    "6300": " Ali",
    "6301": "umbling",
    "6302": "riends",
    "6303": "ormed",
    "6304": "eke",
    "6305": "dies",
    "6306": "bel",
    "6307": "atur",
    "6308": "arter",
    "6309": "ades",
    "6310": "acy",
    "6311": "aired",
    "6312": "However",
    "6313": "Bad",
    "6314": " whispers",
    "6315": " waiter",
    "6316": " tiss",
    "6317": " snuck",
    "6318": " smarter",
    "6319": " slam",
    "6320": " scales",
    "6321": " robb",
    "6322": " repaired",
    "6323": " reason",
    "6324": " risk",
    "6325": " prettiest",
    "6326": " prayer",
    "6327": " moo",
    "6328": " insp",
    "6329": " flight",
    "6330": " entrance",
    "6331": " daring",
    "6332": " dared",
    "6333": " cracked",
    "6334": " chuck",
    "6335": " catches",
    "6336": " cough",
    "6337": " awo",
    "6338": " Spark",
    "6339": " Sque",
    "6340": " Remember",
    "6341": " Nan",
    "6342": " Marie",
    "6343": " Mon",
    "6344": " Gina",
    "6345": " Danny",
    "6346": " Abi",
    "6347": "zen",
    "6348": "yond",
    "6349": "oys",
    "6350": "opes",
    "6351": "ica",
    "6352": "hell",
    "6353": "fly",
    "6354": "essie",
    "6355": "esmer",
    "6356": "aisies",
    "6357": "abby",
    "6358": "Unfortunately",
    "6359": "Ro",
    "6360": "Goodbye",
    "6361": "?\",",
    "6362": " wasted",
    "6363": " tricky",
    "6364": " travelled",
    "6365": " tissue",
    "6366": " theirs",
    "6367": " threat",
    "6368": " tigers",
    "6369": " tangled",
    "6370": " swirl",
    "6371": " squares",
    "6372": " spreading",
    "6373": " splashes",
    "6374": " recipe",
    "6375": " raindrops",
    "6376": " rising",
    "6377": " particular",
    "6378": " noon",
    "6379": " mesmer",
    "6380": " improved",
    "6381": " health",
    "6382": " handful",
    "6383": " growls",
    "6384": " folding",
    "6385": " dragons",
    "6386": " determination",
    "6387": " decorating",
    "6388": " darker",
    "6389": " dipped",
    "6390": " daisies",
    "6391": " crumbs",
    "6392": " beyond",
    "6393": " backed",
    "6394": " accomplishment",
    "6395": " Wiggly",
    "6396": " Pip",
    "6397": " Leave",
    "6398": " Get",
    "6399": "unched",
    "6400": "ulu",
    "6401": "ratul",
    "6402": "ongratul",
    "6403": "ners",
    "6404": "mpt",
    "6405": "eal",
    "6406": "athy",
    "6407": "Wh",
    "6408": "Toby",
    "6409": "--",
    "6410": " windy",
    "6411": " surfing",
    "6412": " students",
    "6413": " stroll",
    "6414": " sticking",
    "6415": " sparrow",
    "6416": " snakes",
    "6417": " seashell",
    "6418": " sausages",
    "6419": " salty",
    "6420": " rout",
    "6421": " provided",
    "6422": " opening",
    "6423": " lined",
    "6424": " included",
    "6425": " honk",
    "6426": " heavier",
    "6427": " heading",
    "6428": " gobbled",
    "6429": " colored",
    "6430": " burst",
    "6431": " Princess",
    "6432": " Out",
    "6433": " Nothing",
    "6434": " Judy",
    "6435": " Jackie",
    "6436": " Finn",
    "6437": " Farmer",
    "6438": "though",
    "6439": "llen",
    "6440": "lves",
    "6441": "lings",
    "6442": "ept",
    "6443": "ently",
    "6444": "ashed",
    "6445": "arac",
    "6446": "alloween",
    "6447": "Yeah",
    "6448": "Thomas",
    "6449": "Josh",
    "6450": "Ellie",
    "6451": "During",
    "6452": "An",
    "6453": "...",
    "6454": " wiggle",
    "6455": " uses",
    "6456": " unpacked",
    "6457": " trips",
    "6458": " swept",
    "6459": " suitc",
    "6460": " sewing",
    "6461": " sense",
    "6462": " roses",
    "6463": " raincoat",
    "6464": " rainy",
    "6465": " needles",
    "6466": " matching",
    "6467": " mittens",
    "6468": " kicks",
    "6469": " goals",
    "6470": " forgetting",
    "6471": " flavors",
    "6472": " fears",
    "6473": " farther",
    "6474": " express",
    "6475": " copy",
    "6476": " conflict",
    "6477": " chuckled",
    "6478": " choices",
    "6479": " chop",
    "6480": " celebrating",
    "6481": " aff",
    "6482": " Zoom",
    "6483": " Zip",
    "6484": " Without",
    "6485": " Stella",
    "6486": " Martha",
    "6487": " Chloe",
    "6488": " Being",
    "6489": " Always",
    "6490": "ults",
    "6491": "tle",
    "6492": "ppers",
    "6493": "per",
    "6494": "mies",
    "6495": "ivia",
    "6496": "immer",
    "6497": "ddled",
    "6498": "cuse",
    "6499": "cl",
    "6500": "aracter",
    "6501": "arling",
    "6502": "Whe",
    "6503": "Uh",
    "6504": "Ruby",
    "6505": "Meow",
    "6506": "Millie",
    "6507": "Lilly",
    "6508": "Fine",
    "6509": " widened",
    "6510": " tractor",
    "6511": " seconds",
    "6512": " ruining",
    "6513": " roads",
    "6514": " rivers",
    "6515": " rewarded",
    "6516": " restored",
    "6517": " polar",
    "6518": " players",
    "6519": " passen",
    "6520": " nur",
    "6521": " misses",
    "6522": " learns",
    "6523": " frozen",
    "6524": " forgiven",
    "6525": " fact",
    "6526": " explorers",
    "6527": " directions",
    "6528": " creativity",
    "6529": " complained",
    "6530": " character",
    "6531": " cause",
    "6532": " breathed",
    "6533": " bows",
    "6534": " among",
    "6535": " achieved",
    "6536": " Sadly",
    "6537": " Many",
    "6538": " Jacob",
    "6539": " Halloween",
    "6540": " Eva",
    "6541": " Bir",
    "6542": " Binky",
    "6543": "zes",
    "6544": "uments",
    "6545": "ueen",
    "6546": "uzz",
    "6547": "uly",
    "6548": "river",
    "6549": "no",
    "6550": "iki",
    "6551": "hil",
    "6552": "ern",
    "6553": "ekend",
    "6554": "ears",
    "6555": "choo",
    "6556": "brush",
    "6557": "araway",
    "6558": "allowed",
    "6559": "Tina",
    "6560": "Rex",
    "6561": "Queen",
    "6562": "Leo",
    "6563": "Grace",
    "6564": "Excuse",
    "6565": " wrist",
    "6566": " weeping",
    "6567": " weekend",
    "6568": " sweetest",
    "6569": " swallowed",
    "6570": " sprinkled",
    "6571": " spoonful",
    "6572": " speaking",
    "6573": " spike",
    "6574": " shaped",
    "6575": " sandcastles",
    "6576": " rubs",
    "6577": " reply",
    "6578": " ropes",
    "6579": " rings",
    "6580": " puff",
    "6581": " pouted",
    "6582": " plans",
    "6583": " peck",
    "6584": " paddle",
    "6585": " neatly",
    "6586": " minerals",
    "6587": " mane",
    "6588": " mailed",
    "6589": " losing",
    "6590": " hesitated",
    "6591": " hesitant",
    "6592": " forks",
    "6593": " flames",
    "6594": " faraway",
    "6595": " experien",
    "6596": " examined",
    "6597": " earn",
    "6598": " drives",
    "6599": " discussed",
    "6600": " deal",
    "6601": " det",
    "6602": " darling",
    "6603": " cuddly",
    "6604": " cubs",
    "6605": " creations",
    "6606": " bodies",
    "6607": " bits",
    "6608": " belly",
    "6609": " arr",
    "6610": " accomplished",
    "6611": " Zero",
    "6612": " Thanks",
    "6613": " Tam",
    "6614": " Maya",
    "6615": " Jojo",
    "6616": " Earth",
    "6617": "quid",
    "6618": "ivities",
    "6619": "itted",
    "6620": "igger",
    "6621": "ixture",
    "6622": "eling",
    "6623": "ads",
    "6624": "Tweety",
    "6625": "Nemo",
    "6626": "Maria",
    "6627": "Mimi",
    "6628": "James",
    "6629": "Have",
    "6630": "Great",
    "6631": "Bun",
    "6632": "Bet",
    "6633": "Annie",
    "6634": " wipes",
    "6635": " uns",
    "6636": " united",
    "6637": " toaster",
    "6638": " tempt",
    "6639": " supported",
    "6640": " suffering",
    "6641": " streets",
    "6642": " stung",
    "6643": " stern",
    "6644": " sports",
    "6645": " snowballs",
    "6646": " snugg",
    "6647": " skill",
    "6648": " shrinking",
    "6649": " shops",
    "6650": " separated",
    "6651": " rusty",
    "6652": " resisted",
    "6653": " result",
    "6654": " requested",
    "6655": " purr",
    "6656": " pumpkins",
    "6657": " promises",
    "6658": " prove",
    "6659": " politely",
    "6660": " planning",
    "6661": " peppers",
    "6662": " meals",
    "6663": " mixture",
    "6664": " maker",
    "6665": " logs",
    "6666": " liquid",
    "6667": " limes",
    "6668": " hopeful",
    "6669": " hissed",
    "6670": " gap",
    "6671": " foods",
    "6672": " fishes",
    "6673": " ech",
    "6674": " delivered",
    "6675": " damage",
    "6676": " cupcakes",
    "6677": " crashing",
    "6678": " cousin",
    "6679": " cottage",
    "6680": " calmed",
    "6681": " cor",
    "6682": " congratul",
    "6683": " behavi",
    "6684": " batteries",
    "6685": " awoke",
    "6686": " annoy",
    "6687": " amount",
    "6688": " afterwards",
    "6689": " activities",
    "6690": " Tilly",
    "6691": " Squirrel",
    "6692": " Sadie",
    "6693": " Ryan",
    "6694": " Maisy",
    "6695": " Fox",
    "6696": " Els",
    "6697": " Cra",
    "6698": " Cindy",
    "6699": " Bye",
    "6700": " Bonnie",
    "6701": " Big",
    "6702": "â",
    "6703": "ubbed",
    "6704": "otten",
    "6705": "ossible",
    "6706": "oor",
    "6707": "idey",
    "6708": "ias",
    "6709": "driver",
    "6710": "anging",
    "6711": "Tony",
    "6712": "Paul",
    "6713": "Pat",
    "6714": "Frank",
    "6715": "Days",
    "6716": "Bobo",
    "6717": "Bear",
    "6718": " wires",
    "6719": " willing",
    "6720": " wept",
    "6721": " wears",
    "6722": " warnings",
    "6723": " waddled",
    "6724": " wow",
    "6725": " truly",
    "6726": " touc",
    "6727": " third",
    "6728": " squishy",
    "6729": " screwdriver",
    "6730": " scrubbed",
    "6731": " sib",
    "6732": " remote",
    "6733": " rotten",
    "6734": " pots",
    "6735": " peacefully",
    "6736": " paying",
    "6737": " opp",
    "6738": " months",
    "6739": " merry",
    "6740": " leads",
    "6741": " leading",
    "6742": " knocks",
    "6743": " impossible",
    "6744": " homework",
    "6745": " hides",
    "6746": " healed",
    "6747": " haird",
    "6748": " freedom",
    "6749": " firefight",
    "6750": " draws",
    "6751": " desert",
    "6752": " crossing",
    "6753": " convers",
    "6754": " coloring",
    "6755": " click",
    "6756": " chocolates",
    "6757": " cans",
    "6758": " bravery",
    "6759": " backwards",
    "6760": " bom",
    "6761": " argument",
    "6762": " adult",
    "6763": " Tess",
    "6764": " Rain",
    "6765": " Owl",
    "6766": " Michael",
    "6767": " Lulu",
    "6768": " Davey",
    "6769": " Dr",
    "6770": " Baa",
    "6771": " By",
    "6772": " Amelia",
    "6773": " Ant",
    "6774": "yes",
    "6775": "whe",
    "6776": "vest",
    "6777": "unity",
    "6778": "ophia",
    "6779": "ntil",
    "6780": "lue",
    "6781": "ids",
    "6782": "found",
    "6783": "ences",
    "6784": "eeling",
    "6785": "cus",
    "6786": "bbly",
    "6787": "antastic",
    "6788": "addie",
    "6789": "Sadly",
    "6790": "Penny",
    "6791": "For",
    "6792": "Ducky",
    "6793": "Baby",
    "6794": " wrapping",
    "6795": " wandering",
    "6796": " wink",
    "6797": " twice",
    "6798": " tramp",
    "6799": " teased",
    "6800": " suitcase",
    "6801": " statues",
    "6802": " sobbed",
    "6803": " snowmen",
    "6804": " sneezing",
    "6805": " snat",
    "6806": " slammed",
    "6807": " silence",
    "6808": " siblings",
    "6809": " shoo",
    "6810": " season",
    "6811": " rolls",
    "6812": " remembering",
    "6813": " refreshing",
    "6814": " refle",
    "6815": " refu",
    "6816": " reapp",
    "6817": " praying",
    "6818": " pecked",
    "6819": " peas",
    "6820": " pins",
    "6821": " mushrooms",
    "6822": " muscle",
    "6823": " lied",
    "6824": " lemons",
    "6825": " lamb",
    "6826": " itchy",
    "6827": " instruments",
    "6828": " hi",
    "6829": " guns",
    "6830": " growl",
    "6831": " gross",
    "6832": " flipped",
    "6833": " fits",
    "6834": " familiar",
    "6835": " fantastic",
    "6836": " dropping",
    "6837": " dots",
    "6838": " curly",
    "6839": " cosy",
    "6840": " behaved",
    "6841": " beginning",
    "6842": " beeh",
    "6843": " beads",
    "6844": " backpacks",
    "6845": " bak",
    "6846": " attack",
    "6847": " aside",
    "6848": " aren",
    "6849": " appreciation",
    "6850": " alien",
    "6851": " afford",
    "6852": " Sun",
    "6853": " Sorry",
    "6854": " Ricky",
    "6855": " Ray",
    "6856": " Olivia",
    "6857": " Janey",
    "6858": " Foxy",
    "6859": " Everybody",
    "6860": " Dot",
    "6861": " Bow",
    "6862": " Bee",
    "6863": " Because",
    "6864": "sty",
    "6865": "roat",
    "6866": "resser",
    "6867": "rect",
    "6868": "ouch",
    "6869": "ords",
    "6870": "ora",
    "6871": "onny",
    "6872": "obody",
    "6873": "lowers",
    "6874": "esome",
    "6875": "erk",
    "6876": "elle",
    "6877": "ctar",
    "6878": "aming",
    "6879": "alph",
    "6880": "Miss",
    "6881": "Mira",
    "6882": "Ew",
    "6883": " wraps",
    "6884": " videos",
    "6885": " tricked",
    "6886": " tossed",
    "6887": " tipt",
    "6888": " thoughts",
    "6889": " throat",
    "6890": " stays",
    "6891": " stacked",
    "6892": " sped",
    "6893": " softer",
    "6894": " smiley",
    "6895": " scarves",
    "6896": " responsib",
    "6897": " report",
    "6898": " reflection",
    "6899": " recommended",
    "6900": " rumble",
    "6901": " punishment",
    "6902": " proper",
    "6903": " notes",
    "6904": " nervously",
    "6905": " nectar",
    "6906": " nine",
    "6907": " magnets",
    "6908": " lighter",
    "6909": " increased",
    "6910": " hider",
    "6911": " handsome",
    "6912": " hairdresser",
    "6913": " guest",
    "6914": " focus",
    "6915": " fluttered",
    "6916": " encourag",
    "6917": " dresser",
    "6918": " dod",
    "6919": " distract",
    "6920": " diving",
    "6921": " deserve",
    "6922": " delayed",
    "6923": " def",
    "6924": " countryside",
    "6925": " congratulated",
    "6926": " clerk",
    "6927": " choo",
    "6928": " blocked",
    "6929": " belts",
    "6930": " beehive",
    "6931": " bathing",
    "6932": " bakery",
    "6933": " badge",
    "6934": " avoid",
    "6935": " adding",
    "6936": " Until",
    "6937": " Patch",
    "6938": " Pl",
    "6939": " Liza",
    "6940": " Kayla",
    "6941": " Froggy",
    "6942": " Fuzzy",
    "6943": " Becky",
    "6944": " 10",
    "6945": "while",
    "6946": "we",
    "6947": "urious",
    "6948": "rrr",
    "6949": "osen",
    "6950": "onna",
    "6951": "oline",
    "6952": "ments",
    "6953": "meal",
    "6954": "munk",
    "6955": "itched",
    "6956": "iona",
    "6957": "iece",
    "6958": "ickie",
    "6959": "cited",
    "6960": "bee",
    "6961": "bbing",
    "6962": "asty",
    "6963": "aren",
    "6964": "anwhile",
    "6965": "Ted",
    "6966": "Shh",
    "6967": "Rose",
    "6968": "Our",
    "6969": "Oops",
    "6970": "Bill",
    "6971": " wishing",
    "6972": " weeds",
    "6973": " twinkle",
    "6974": " trembled",
    "6975": " trampoline",
    "6976": " trot",
    "6977": " toolbox",
    "6978": " temper",
    "6979": " superheroes",
    "6980": " sneaky",
    "6981": " slither",
    "6982": " slices",
    "6983": " skunk",
    "6984": " sisters",
    "6985": " sending",
    "6986": " seems",
    "6987": " scored",
    "6988": " policeman",
    "6989": " passengers",
    "6990": " onward",
    "6991": " oatmeal",
    "6992": " newfound",
    "6993": " mesmerized",
    "6994": " lun",
    "6995": " knees",
    "6996": " joking",
    "6997": " imagining",
    "6998": " helpers",
    "6999": " hen",
    "7000": " hearing",
    "7001": " hallway",
    "7002": " hour",
    "7003": " ghosts",
    "7004": " frowns",
    "7005": " exercises",
    "7006": " elf",
    "7007": " ease",
    "7008": " drawers",
    "7009": " displayed",
    "7010": " dived",
    "7011": " creamy",
    "7012": " covers",
    "7013": " cond",
    "7014": " chipmunk",
    "7015": " chosen",
    "7016": " coup",
    "7017": " coral",
    "7018": " bond",
    "7019": " awesome",
    "7020": " Up",
    "7021": " Those",
    "7022": " Tiny",
    "7023": " Slowly",
    "7024": " Friends",
    "7025": " El",
    "7026": " Dog",
    "7027": " Ber",
    "7028": "weed",
    "7029": "otte",
    "7030": "ori",
    "7031": "oni",
    "7032": "ibbit",
    "7033": "emma",
    "7034": "cope",
    "7035": "coon",
    "7036": "arlotte",
    "7037": "aa",
    "7038": "Whee",
    "7039": "Run",
    "7040": "Meanwhile",
    "7041": "Fin",
    "7042": "Claire",
    "7043": " yourselves",
    "7044": " wag",
    "7045": " unfortunately",
    "7046": " und",
    "7047": " toward",
    "7048": " todd",
    "7049": " surroundings",
    "7050": " spears",
    "7051": " source",
    "7052": " snatched",
    "7053": " sharks",
    "7054": " seeker",
    "7055": " seaweed",
    "7056": " scratches",
    "7057": " scraped",
    "7058": " scamp",
    "7059": " rule",
    "7060": " routine",
    "7061": " prick",
    "7062": " prettier",
    "7063": " prun",
    "7064": " potion",
    "7065": " pops",
    "7066": " overcome",
    "7067": " nasty",
    "7068": " munch",
    "7069": " mood",
    "7070": " master",
    "7071": " lifts",
    "7072": " lent",
    "7073": " inspired",
    "7074": " hitting",
    "7075": " granted",
    "7076": " gasp",
    "7077": " feeding",
    "7078": " explod",
    "7079": " dusty",
    "7080": " disob",
    "7081": " designed",
    "7082": " defe",
    "7083": " dads",
    "7084": " curiously",
    "7085": " corners",
    "7086": " connect",
    "7087": " business",
    "7088": " bricks",
    "7089": " Tuna",
    "7090": " Tara",
    "7091": " Ow",
    "7092": " Nobody",
    "7093": " Meg",
    "7094": " Louise",
    "7095": " Kiki",
    "7096": " Johnson",
    "7097": " Honey",
    "7098": " Gold",
    "7099": " Ex",
    "7100": " Betty",
    "7101": " Annabel",
    "7102": " Adam",
    "7103": "years",
    "7104": "xophone",
    "7105": "what",
    "7106": "ushed",
    "7107": "tuce",
    "7108": "step",
    "7109": "sequ",
    "7110": "roken",
    "7111": "rees",
    "7112": "ounce",
    "7113": "ita",
    "7114": "ientist",
    "7115": "ebs",
    "7116": "cycle",
    "7117": "broken",
    "7118": "aturday",
    "7119": "ambi",
    "7120": "amma",
    "7121": "ados",
    "7122": "Gina",
    "7123": "Clara",
    "7124": "Boo",
    "7125": "Back",
    "7126": "Alright",
    "7127": " wobbled",
    "7128": " vanilla",
    "7129": " twinkled",
    "7130": " tricycle",
    "7131": " toddler",
    "7132": " tiptoed",
    "7133": " tasks",
    "7134": " talented",
    "7135": " swans",
    "7136": " stroked",
    "7137": " stands",
    "7138": " stitch",
    "7139": " squin",
    "7140": " spices",
    "7141": " slower",
    "7142": " silent",
    "7143": " shown",
    "7144": " seagulls",
    "7145": " scientist",
    "7146": " saxophone",
    "7147": " rushing",
    "7148": " respond",
    "7149": " puzzled",
    "7150": " prayers",
    "7151": " poster",
    "7152": " paths",
    "7153": " oh",
    "7154": " noses",
    "7155": " neither",
    "7156": " neare",
    "7157": " memb",
    "7158": " material",
    "7159": " manag",
    "7160": " mel",
    "7161": " lungs",
    "7162": " lettuce",
    "7163": " knots",
    "7164": " humming",
    "7165": " humans",
    "7166": " heartbroken",
    "7167": " height",
    "7168": " greeted",
    "7169": " goodies",
    "7170": " giggles",
    "7171": " gonna",
    "7172": " fuzzy",
    "7173": " flashing",
    "7174": " despite",
    "7175": " delivering",
    "7176": " customers",
    "7177": " correct",
    "7178": " conversation",
    "7179": " consequ",
    "7180": " concer",
    "7181": " cobwebs",
    "7182": " changing",
    "7183": " artist",
    "7184": " age",
    "7185": " aeroplanes",
    "7186": " Water",
    "7187": " Take",
    "7188": " Sid",
    "7189": " Saturday",
    "7190": " Only",
    "7191": " Olive",
    "7192": " Momma",
    "7193": " Mina",
    "7194": " Goodbye",
    "7195": " Bert",
    "7196": " X",
    "7197": " 2",
    "7198": "vant",
    "7199": "upt",
    "7200": "stick",
    "7201": "rench",
    "7202": "rig",
    "7203": "rigued",
    "7204": "ppa",
    "7205": "ounced",
    "7206": "oration",
    "7207": "nk",
    "7208": "inda",
    "7209": "immering",
    "7210": "iggled",
    "7211": "iasm",
    "7212": "espite",
    "7213": "ccoon",
    "7214": "band",
    "7215": "ansf",
    "7216": "Yummy",
    "7217": "Woof",
    "7218": "Sandy",
    "7219": "Rosie",
    "7220": "Lena",
    "7221": "Katie",
    "7222": "Kim",
    "7223": "Fred",
    "7224": "Even",
    "7225": "Danny",
    "7226": "Blue",
    "7227": "Abigail",
    "7228": " wiping",
    "7229": " whistles",
    "7230": " wins",
    "7231": " type",
    "7232": " transf",
    "7233": " tighter",
    "7234": " throughout",
    "7235": " thrown",
    "7236": " thanking",
    "7237": " thud",
    "7238": " temperature",
    "7239": " tapping",
    "7240": " tapped",
    "7241": " sweaters",
    "7242": " surfboard",
    "7243": " streamers",
    "7244": " stomped",
    "7245": " stopping",
    "7246": " steady",
    "7247": " spills",
    "7248": " sled",
    "7249": " shrug",
    "7250": " scratching",
    "7251": " scampered",
    "7252": " scut",
    "7253": " sailors",
    "7254": " sank",
    "7255": " rotting",
    "7256": " responsibility",
    "7257": " repeating",
    "7258": " reass",
    "7259": " raccoon",
    "7260": " rip",
    "7261": " prunes",
    "7262": " prickly",
    "7263": " preparing",
    "7264": " pokes",
    "7265": " playtime",
    "7266": " plain",
    "7267": " performance",
    "7268": " penguins",
    "7269": " pans",
    "7270": " paintbrush",
    "7271": " pens",
    "7272": " neighbours",
    "7273": " nuzz",
    "7274": " matters",
    "7275": " lessons",
    "7276": " least",
    "7277": " grassy",
    "7278": " gardener",
    "7279": " frowning",
    "7280": " form",
    "7281": " final",
    "7282": " figures",
    "7283": " exploded",
    "7284": " examining",
    "7285": " enthusiasm",
    "7286": " ends",
    "7287": " encouraging",
    "7288": " dreamt",
    "7289": " dragonfly",
    "7290": " doorway",
    "7291": " cubes",
    "7292": " connected",
    "7293": " conqu",
    "7294": " cleared",
    "7295": " characters",
    "7296": " chilly",
    "7297": " center",
    "7298": " calmly",
    "7299": " buzzed",
    "7300": " bulbs",
    "7301": " breathing",
    "7302": " bowls",
    "7303": " bothered",
    "7304": " buddy",
    "7305": " bless",
    "7306": " avocados",
    "7307": " ais",
    "7308": " Ty",
    "7309": " Sunshine",
    "7310": " Start",
    "7311": " Squeaky",
    "7312": " Roxy",
    "7313": " Quackers",
    "7314": " Purple",
    "7315": " Phil",
    "7316": " Our",
    "7317": " Jessica",
    "7318": " Jennie",
    "7319": " Jean",
    "7320": " Chickie",
    "7321": " Birthday",
    "7322": " Bad",
    "7323": " Queen",
    "7324": "worm",
    "7325": "veral",
    "7326": "usband",
    "7327": "udience",
    "7328": "sol",
    "7329": "retty",
    "7330": "ndparent",
    "7331": "now",
    "7332": "itches",
    "7333": "istory",
    "7334": "iment",
    "7335": "ibble",
    "7336": "ggies",
    "7337": "fire",
    "7338": "fall",
    "7339": "eremy",
    "7340": "eople",
    "7341": "cused",
    "7342": "crow",
    "7343": "bu",
    "7344": "awk",
    "7345": "anny",
    "7346": "anc",
    "7347": "ana",
    "7348": "Tr",
    "7349": "Quick",
    "7350": "Mel",
    "7351": "Dear",
    "7352": "David",
    "7353": "By",
    "7354": "Bunny",
    "7355": "!â.",
    "7356": " â",
    "7357": " youngest",
    "7358": " wobble",
    "7359": " watering",
    "7360": " wrench",
    "7361": " veggies",
    "7362": " untied",
    "7363": " unlo",
    "7364": " twisty",
    "7365": " tunnels",
    "7366": " troubles",
    "7367": " tidying",
    "7368": " thorns",
    "7369": " testing",
    "7370": " terrified",
    "7371": " tasting",
    "7372": " talks",
    "7373": " sweep",
    "7374": " suggestion",
    "7375": " student",
    "7376": " stored",
    "7377": " seesaw",
    "7378": " several",
    "7379": " sale",
    "7380": " rockets",
    "7381": " robots",
    "7382": " risks",
    "7383": " reads",
    "7384": " quieter",
    "7385": " pupils",
    "7386": " printing",
    "7387": " poems",
    "7388": " performed",
    "7389": " pastries",
    "7390": " particularly",
    "7391": " parties",
    "7392": " pound",
    "7393": " outfits",
    "7394": " offic",
    "7395": " napkins",
    "7396": " napping",
    "7397": " muscles",
    "7398": " magnif",
    "7399": " magazines",
    "7400": " loops",
    "7401": " lifting",
    "7402": " lending",
    "7403": " leapt",
    "7404": " laces",
    "7405": " indeed",
    "7406": " honked",
    "7407": " handing",
    "7408": " husband",
    "7409": " grandd",
    "7410": " gracefully",
    "7411": " grandparent",
    "7412": " garb",
    "7413": " focused",
    "7414": " flown",
    "7415": " finishing",
    "7416": " faded",
    "7417": " experienced",
    "7418": " driveway",
    "7419": " donkey",
    "7420": " dollhouse",
    "7421": " discussing",
    "7422": " damaged",
    "7423": " dip",
    "7424": " dep",
    "7425": " cuddles",
    "7426": " crew",
    "7427": " craft",
    "7428": " covering",
    "7429": " cloudy",
    "7430": " clues",
    "7431": " chopped",
    "7432": " coug",
    "7433": " bravest",
    "7434": " blinking",
    "7435": " beloved",
    "7436": " battle",
    "7437": " arranged",
    "7438": " audience",
    "7439": " Terry",
    "7440": " Sleep",
    "7441": " Rock",
    "7442": " Pinky",
    "7443": " Nick",
    "7444": " Love",
    "7445": " Frosty",
    "7446": " Crabby",
    "7447": " Any",
    "7448": "vie",
    "7449": "ronaut",
    "7450": "peck",
    "7451": "pecker",
    "7452": "pen",
    "7453": "ooky",
    "7454": "opper",
    "7455": "nnie",
    "7456": "lets",
    "7457": "lied",
    "7458": "initely",
    "7459": "ilted",
    "7460": "igning",
    "7461": "hnnie",
    "7462": "erm",
    "7463": "elvet",
    "7464": "cou",
    "7465": "boards",
    "7466": "bbling",
    "7467": "ading",
    "7468": "abel",
    "7469": "aven",
    "7470": "Tweetie",
    "7471": "Su",
    "7472": "Rachel",
    "7473": "Kate",
    "7474": "Buddy",
    "7475": "Bu",
    "7476": " yielded",
    "7477": " wrink",
    "7478": " valued",
    "7479": " unsure",
    "7480": " unw",
    "7481": " typ",
    "7482": " twisting",
    "7483": " trotted",
    "7484": " treated",
    "7485": " travelling",
    "7486": " travels",
    "7487": " ting",
    "7488": " symbols",
    "7489": " swaying",
    "7490": " supplied",
    "7491": " strongest",
    "7492": " strips",
    "7493": " starfish",
    "7494": " spooky",
    "7495": " soundly",
    "7496": " snug",
    "7497": " smelling",
    "7498": " slips",
    "7499": " seashells",
    "7500": " scarecrow",
    "7501": " reun",
    "7502": " quarreling",
    "7503": " providing",
    "7504": " pedaled",
    "7505": " orders",
    "7506": " offering",
    "7507": " nearly",
    "7508": " nibble",
    "7509": " mayor",
    "7510": " knights",
    "7511": " jackets",
    "7512": " helmets",
    "7513": " hoo",
    "7514": " generosity",
    "7515": " garbage",
    "7516": " foxes",
    "7517": " flip",
    "7518": " expert",
    "7519": " embarrass",
    "7520": " drawn",
    "7521": " distracted",
    "7522": " cowb",
    "7523": " couple",
    "7524": " consequences",
    "7525": " cons",
    "7526": " charge",
    "7527": " campfire",
    "7528": " burnt",
    "7529": " brushing",
    "7530": " breaths",
    "7531": " bru",
    "7532": " biting",
    "7533": " bison",
    "7534": " admiration",
    "7535": " activity",
    "7536": " ache",
    "7537": " Well",
    "7538": " Watch",
    "7539": " Taking",
    "7540": " Sophia",
    "7541": " Peppa",
    "7542": " Mo",
    "7543": " Macy",
    "7544": " Kelly",
    "7545": " Joan",
    "7546": " Jacky",
    "7547": " Gabby",
    "7548": " Floppy",
    "7549": " Flash",
    "7550": " Dotty",
    "7551": " Duck",
    "7552": " Copper",
    "7553": " Coco",
    "7554": " Chip",
    "7555": " Bessie",
    "7556": "ucker",
    "7557": "ortunately",
    "7558": "onse",
    "7559": "mates",
    "7560": "ldy",
    "7561": "ippers",
    "7562": "int",
    "7563": "iving",
    "7564": "endy",
    "7565": "chievous",
    "7566": "but",
    "7567": "aisie",
    "7568": "Milly",
    "7569": "Listen",
    "7570": "Like",
    "7571": "Keep",
    "7572": "Jazz",
    "7573": "Chris",
    "7574": " yumm",
    "7575": " wounds",
    "7576": " woodpecker",
    "7577": " wobbly",
    "7578": " wakes",
    "7579": " wider",
    "7580": " upside",
    "7581": " turtles",
    "7582": " triangles",
    "7583": " tearing",
    "7584": " tumbled",
    "7585": " tipped",
    "7586": " surv",
    "7587": " stain",
    "7588": " squished",
    "7589": " sprang",
    "7590": " spoiling",
    "7591": " spits",
    "7592": " spells",
    "7593": " spat",
    "7594": " slipping",
    "7595": " scutt",
    "7596": " scrape",
    "7597": " scram",
    "7598": " sadd",
    "7599": " robbers",
    "7600": " reunited",
    "7601": " response",
    "7602": " rebu",
    "7603": " rains",
    "7604": " rather",
    "7605": " que",
    "7606": " puppies",
    "7607": " postman",
    "7608": " pointy",
    "7609": " permitted",
    "7610": " performing",
    "7611": " peak",
    "7612": " opport",
    "7613": " obeyed",
    "7614": " occ",
    "7615": " nibb",
    "7616": " mischievous",
    "7617": " materials",
    "7618": " marking",
    "7619": " miles",
    "7620": " mer",
    "7621": " luckily",
    "7622": " licking",
    "7623": " leaking",
    "7624": " inchworm",
    "7625": " grows",
    "7626": " granddaughter",
    "7627": " glued",
    "7628": " germ",
    "7629": " forgiveness",
    "7630": " flaps",
    "7631": " fires",
    "7632": " expression",
    "7633": " dryer",
    "7634": " dollars",
    "7635": " discoveries",
    "7636": " detail",
    "7637": " definitely",
    "7638": " decoration",
    "7639": " decl",
    "7640": " customer",
    "7641": " crawls",
    "7642": " cleaner",
    "7643": " cheerfully",
    "7644": " bumps",
    "7645": " bounces",
    "7646": " borrowed",
    "7647": " bomb",
    "7648": " blocking",
    "7649": " blast",
    "7650": " believing",
    "7651": " behavior",
    "7652": " astronaut",
    "7653": " aston",
    "7654": " arrows",
    "7655": " Try",
    "7656": " Stay",
    "7657": " Sim",
    "7658": " Roger",
    "7659": " Ruth",
    "7660": " Rubb",
    "7661": " Ralph",
    "7662": " Pepper",
    "7663": " Pipp",
    "7664": " Pam",
    "7665": " Other",
    "7666": " Maddie",
    "7667": " Larry",
    "7668": " Izzy",
    "7669": " Gary",
    "7670": " Frog",
    "7671": " Fly",
    "7672": " Eliz",
    "7673": " Oh",
    "7674": "urtle",
    "7675": "used",
    "7676": "storm",
    "7677": "rand",
    "7678": "race",
    "7679": "perate",
    "7680": "pit",
    "7681": "oss",
    "7682": "isc",
    "7683": "ilo",
    "7684": "ido",
    "7685": "icious",
    "7686": "iana",
    "7687": "erg",
    "7688": "ening",
    "7689": "covered",
    "7690": "cloth",
    "7691": "child",
    "7692": "cent",
    "7693": "ca",
    "7694": "byes",
    "7695": "azing",
    "7696": "aying",
    "7697": "aye",
    "7698": "asper",
    "7699": "arla",
    "7700": "ancis",
    "7701": "airy",
    "7702": "ably",
    "7703": "abeth",
    "7704": "Watch",
    "7705": "Two",
    "7706": "Steve",
    "7707": "Polly",
    "7708": "Never",
    "7709": "Matt",
    "7710": "Jamie",
    "7711": "Freddy",
    "7712": "?!\"",
    "7713": " wriggled",
    "7714": " worrying",
    "7715": " whales",
    "7716": " weighs",
    "7717": " visits",
    "7718": " visitor",
    "7719": " vibr",
    "7720": " vehicles",
    "7721": " tweet",
    "7722": " touches",
    "7723": " swimsuit",
    "7724": " swords",
    "7725": " sunflowers",
    "7726": " stroke",
    "7727": " speaker",
    "7728": " spies",
    "7729": " slithered",
    "7730": " simply",
    "7731": " shin",
    "7732": " shady",
    "7733": " seller",
    "7734": " scurry",
    "7735": " scrambled",
    "7736": " scolds",
    "7737": " scri",
    "7738": " sill",
    "7739": " roars",
    "7740": " puppet",
    "7741": " prints",
    "7742": " presses",
    "7743": " pollen",
    "7744": " playhouse",
    "7745": " planets",
    "7746": " picnics",
    "7747": " peeled",
    "7748": " passports",
    "7749": " parted",
    "7750": " pantry",
    "7751": " opportunity",
    "7752": " mate",
    "7753": " laying",
    "7754": " joyful",
    "7755": " intrigued",
    "7756": " inj",
    "7757": " hike",
    "7758": " grandchild",
    "7759": " goodbyes",
    "7760": " glittery",
    "7761": " forgets",
    "7762": " firefighter",
    "7763": " exh",
    "7764": " except",
    "7765": " elbow",
    "7766": " efforts",
    "7767": " echoed",
    "7768": " drivers",
    "7769": " disturbing",
    "7770": " disobey",
    "7771": " diamonds",
    "7772": " ding",
    "7773": " changes",
    "7774": " caw",
    "7775": " burying",
    "7776": " buckled",
    "7777": " bothering",
    "7778": " blond",
    "7779": " beetles",
    "7780": " beaming",
    "7781": " banged",
    "7782": " automobiles",
    "7783": " antic",
    "7784": " annoyed",
    "7785": " agrees",
    "7786": " afar",
    "7787": " adults",
    "7788": " Velvet",
    "7789": " Strip",
    "7790": " Sweet",
    "7791": " Sw",
    "7792": " Rubber",
    "7793": " Robbie",
    "7794": " Mamma",
    "7795": " Keep",
    "7796": " Hootie",
    "7797": " Henny",
    "7798": " Hannah",
    "7799": " Finny",
    "7800": " Elsie",
    "7801": " Although",
    "7802": "wise",
    "7803": "undred",
    "7804": "ulp",
    "7805": "ulpture",
    "7806": "tha",
    "7807": "tto",
    "7808": "the",
    "7809": "shirt",
    "7810": "please",
    "7811": "ossom",
    "7812": "orter",
    "7813": "order",
    "7814": "ooking",
    "7815": "ngel",
    "7816": "lescope",
    "7817": "itude",
    "7818": "isky",
    "7819": "iscuit",
    "7820": "iolet",
    "7821": "ibit",
    "7822": "iens",
    "7823": "ertain",
    "7824": "enn",
    "7825": "dding",
    "7826": "couraged",
    "7827": "cul",
    "7828": "cake",
    "7829": "bird",
    "7830": "belt",
    "7831": "atty",
    "7832": "Yesterday",
    "7833": "Vroom",
    "7834": "Roar",
    "7835": "Ruth",
    "7836": "Quack",
    "7837": "Katy",
    "7838": "Fo",
    "7839": "Cindy",
    "7840": "Che",
    "7841": "Arrr",
    "7842": "Adam",
    "7843": "...\"",
    "7844": " â",
    "7845": " zookeeper",
    "7846": " zipping",
    "7847": " yawning",
    "7848": " within",
    "7849": " wisely",
    "7850": " whose",
    "7851": " whispering",
    "7852": " wasting",
    "7853": " visitors",
    "7854": " understands",
    "7855": " twin",
    "7856": " topp",
    "7857": " threads",
    "7858": " throne",
    "7859": " teachers",
    "7860": " telescope",
    "7861": " swap",
    "7862": " successfully",
    "7863": " stomp",
    "7864": " squinted",
    "7865": " spilling",
    "7866": " spong",
    "7867": " snuggle",
    "7868": " skies",
    "7869": " sirens",
    "7870": " serving",
    "7871": " servant",
    "7872": " self",
    "7873": " seatbelt",
    "7874": " sculpture",
    "7875": " sails",
    "7876": " sou",
    "7877": " sens",
    "7878": " rubbish",
    "7879": " robber",
    "7880": " reversed",
    "7881": " repeats",
    "7882": " repairman",
    "7883": " reassured",
    "7884": " react",
    "7885": " rin",
    "7886": " quilt",
    "7887": " prevented",
    "7888": " poss",
    "7889": " pigeons",
    "7890": " panicked",
    "7891": " paddling",
    "7892": " puck",
    "7893": " pace",
    "7894": " officers",
    "7895": " occas",
    "7896": " nuzzled",
    "7897": " newspapers",
    "7898": " minds",
    "7899": " merma",
    "7900": " matey",
    "7901": " marve",
    "7902": " loading",
    "7903": " knocking",
    "7904": " knives",
    "7905": " instantly",
    "7906": " hops",
    "7907": " hissing",
    "7908": " heroes",
    "7909": " guide",
    "7910": " flooded",
    "7911": " firmly",
    "7912": " firefly",
    "7913": " fever",
    "7914": " fascinating",
    "7915": " exploration",
    "7916": " exhibit",
    "7917": " exch",
    "7918": " elect",
    "7919": " earned",
    "7920": " dressing",
    "7921": " drown",
    "7922": " defeated",
    "7923": " declared",
    "7924": " dears",
    "7925": " counts",
    "7926": " correctly",
    "7927": " conquered",
    "7928": " climber",
    "7929": " classmates",
    "7930": " chefs",
    "7931": " bends",
    "7932": " baths",
    "7933": " bandages",
    "7934": " awful",
    "7935": " astonished",
    "7936": " appreciated",
    "7937": " angels",
    "7938": " aliens",
    "7939": " aisle",
    "7940": " aimed",
    "7941": " White",
    "7942": " Wendy",
    "7943": " Time",
    "7944": " Sparky",
    "7945": " Rover",
    "7946": " Puff",
    "7947": " Otto",
    "7948": " Maisie",
    "7949": " Lion",
    "7950": " Janie",
    "7951": " Jonny",
    "7952": " Flora",
    "7953": " Despite",
    "7954": " Charlotte",
    "7955": " Catie",
    "7956": " Colin",
    "7957": " Butter",
    "7958": " Ameli",
    "7959": " Ash",
    "7960": " Ag",
    "7961": " icing",
    "7962": " 9",
    "7963": "wk",
    "7964": "utter",
    "7965": "uctor",
    "7966": "tern",
    "7967": "ssy",
    "7968": "screen",
    "7969": "sie",
    "7970": "sery",
    "7971": "rier",
    "7972": "rons",
    "7973": "osure",
    "7974": "oodles",
    "7975": "ooke",
    "7976": "onya",
    "7977": "obably",
    "7978": "ollen",
    "7979": "lfie",
    "7980": "lt",
    "7981": "losure",
    "7982": "ittered",
    "7983": "iter",
    "7984": "issa",
    "7985": "ipation",
    "7986": "iley",
    "7987": "ighing",
    "7988": "iel",
    "7989": "filled",
    "7990": "enery",
    "7991": "eech",
    "7992": "dges",
    "7993": "cat",
    "7994": "ausing",
    "7995": "attered",
    "7996": "ative",
    "7997": "arlings",
    "7998": "aps",
    "7999": "antha",
    "8000": "adually",
    "8001": "acey",
    "8002": "Whenever",
    "8003": "Very",
    "8004": "Someone",
    "8005": "Surpr",
    "8006": "Since",
    "8007": "Ollie",
    "8008": "Mon",
    "8009": "Mickey",
    "8010": "Leave",
    "8011": "Je",
    "8012": "Gabby",
    "8013": "Chloe",
    "8014": "Car",
    "8015": "Betsy",
    "8016": "Am",
    "8017": "Abby",
    "8018": "11",
    "8019": "!'.",
    "8020": " writer",
    "8021": " wolves",
    "8022": " wiggly",
    "8023": " waters",
    "8024": " warmer",
    "8025": " warri",
    "8026": " vibrant",
    "8027": " untie",
    "8028": " uniforms",
    "8029": " tubes",
    "8030": " transformed",
    "8031": " tires",
    "8032": " tuck",
    "8033": " tilted",
    "8034": " swollen",
    "8035": " survive",
    "8036": " sunscreen",
    "8037": " suits",
    "8038": " strum",
    "8039": " steer",
    "8040": " squeaked",
    "8041": " sponge",
    "8042": " spins",
    "8043": " speech",
    "8044": " soaking",
    "8045": " smashed",
    "8046": " shorter",
    "8047": " shh",
    "8048": " sewed",
    "8049": " scuttled",
    "8050": " scattering",
    "8051": " scenery",
    "8052": " scen",
    "8053": " sandy",
    "8054": " sadder",
    "8055": " sav",
    "8056": " rows",
    "8057": " responded",
    "8058": " respected",
    "8059": " reminds",
    "8060": " raking",
    "8061": " rumbling",
    "8062": " roo",
    "8063": " rips",
    "8064": " queens",
    "8065": " prod",
    "8066": " pretz",
    "8067": " pressing",
    "8068": " preschool",
    "8069": " probably",
    "8070": " popsic",
    "8071": " pleas",
    "8072": " plumber",
    "8073": " plo",
    "8074": " poop",
    "8075": " nurses",
    "8076": " nursery",
    "8077": " noticing",
    "8078": " nodding",
    "8079": " munching",
    "8080": " million",
    "8081": " messes",
    "8082": " manager",
    "8083": " manners",
    "8084": " mac",
    "8085": " kings",
    "8086": " ignoring",
    "8087": " hotter",
    "8088": " hooks",
    "8089": " hiss",
    "8090": " heaven",
    "8091": " hawk",
    "8092": " hundred",
    "8093": " guests",
    "8094": " grandparents",
    "8095": " goats",
    "8096": " gems",
    "8097": " gest",
    "8098": " gears",
    "8099": " forgiving",
    "8100": " forests",
    "8101": " floors",
    "8102": " enclosure",
    "8103": " edges",
    "8104": " dripping",
    "8105": " dodged",
    "8106": " discouraged",
    "8107": " designs",
    "8108": " die",
    "8109": " date",
    "8110": " darlings",
    "8111": " cushions",
    "8112": " countries",
    "8113": " coughed",
    "8114": " consider",
    "8115": " conductor",
    "8116": " concert",
    "8117": " convin",
    "8118": " checks",
    "8119": " chatted",
    "8120": " carts",
    "8121": " calming",
    "8122": " causing",
    "8123": " bracelets",
    "8124": " bride",
    "8125": " bowing",
    "8126": " blonde",
    "8127": " blushed",
    "8128": " blown",
    "8129": " birdy",
    "8130": " birdhouse",
    "8131": " behaving",
    "8132": " auntie",
    "8133": " astronauts",
    "8134": " apologised",
    "8135": " aprons",
    "8136": " anticipation",
    "8137": " answering",
    "8138": " allerg",
    "8139": " active",
    "8140": " action",
    "8141": " actor",
    "8142": " Willie",
    "8143": " Trust",
    "8144": " Turtle",
    "8145": " Tucker",
    "8146": " Spidey",
    "8147": " Spe",
    "8148": " Sleepy",
    "8149": " Say",
    "8150": " Sand",
    "8151": " Quick",
    "8152": " Poor",
    "8153": " Never",
    "8154": " Ms",
    "8155": " Ma",
    "8156": " Looking",
    "8157": " Isn",
    "8158": " Isla",
    "8159": " Hopper",
    "8160": " History",
    "8161": " Francis",
    "8162": " Faye",
    "8163": " Brooke",
    "8164": " Barry",
    "8165": " Bambi",
    "8166": " Angel",
    "8167": " Abbie",
    "8168": " Okay",
    "8169": "yl",
    "8170": "well",
    "8171": "von",
    "8172": "vonne",
    "8173": "ugging",
    "8174": "uffin",
    "8175": "udged",
    "8176": "tment",
    "8177": "shaped",
    "8178": "she",
    "8179": "rent",
    "8180": "po",
    "8181": "otch",
    "8182": "ordinary",
    "8183": "oped",
    "8184": "mered",
    "8185": "mallow",
    "8186": "mallows",
    "8187": "line",
    "8188": "lers",
    "8189": "ironment",
    "8190": "ilities",
    "8191": "ieves",
    "8192": "ippy",
    "8193": "ial",
    "8194": "faction",
    "8195": "fl",
    "8196": "etchup",
    "8197": "ennis",
    "8198": "ddie",
    "8199": "centr",
    "8200": "cr",
    "8201": "bie",
    "8202": "ators",
    "8203": "ata",
    "8204": "arshmallows",
    "8205": "agic",
    "8206": "Which",
    "8207": "True",
    "8208": "Sadie",
    "8209": "Sunny",
    "8210": "Red",
    "8211": "Put",
    "8212": "Mina",
    "8213": "Mila",
    "8214": "Hurry",
    "8215": "Hannah",
    "8216": "HE",
    "8217": "Feeling",
    "8218": "Any",
    "8219": ",'",
    "8220": " winds",
    "8221": " whimp",
    "8222": " warmly",
    "8223": " thieves",
    "8224": " temptation",
    "8225": " tails",
    "8226": " tables",
    "8227": " surely",
    "8228": " suffered",
    "8229": " stamped",
    "8230": " stinky",
    "8231": " squeezes",
    "8232": " squeak",
    "8233": " squir",
    "8234": " spelling",
    "8235": " speeding",
    "8236": " spare",
    "8237": " softened",
    "8238": " sneaking",
    "8239": " snort",
    "8240": " smallest",
    "8241": " smelt",
    "8242": " slowed",
    "8243": " shrunk",
    "8244": " shines",
    "8245": " scares",
    "8246": " scent",
    "8247": " satisfaction",
    "8248": " runner",
    "8249": " robin",
    "8250": " retri",
    "8251": " reminding",
    "8252": " recorder",
    "8253": " reappeared",
    "8254": " purrs",
    "8255": " prog",
    "8256": " poses",
    "8257": " planting",
    "8258": " plugged",
    "8259": " plug",
    "8260": " purp",
    "8261": " pours",
    "8262": " ornaments",
    "8263": " occasion",
    "8264": " nights",
    "8265": " nearest",
    "8266": " motorb",
    "8267": " mosquitoes",
    "8268": " mommies",
    "8269": " meaning",
    "8270": " magnifying",
    "8271": " magician",
    "8272": " marshmallows",
    "8273": " lowered",
    "8274": " loudest",
    "8275": " kittens",
    "8276": " ketchup",
    "8277": " joining",
    "8278": " jobs",
    "8279": " ironing",
    "8280": " intently",
    "8281": " guards",
    "8282": " grandson",
    "8283": " grabbing",
    "8284": " glittered",
    "8285": " glimmering",
    "8286": " glided",
    "8287": " gesture",
    "8288": " germs",
    "8289": " gri",
    "8290": " gazing",
    "8291": " fond",
    "8292": " floats",
    "8293": " faith",
    "8294": " failed",
    "8295": " environment",
    "8296": " engines",
    "8297": " electric",
    "8298": " elder",
    "8299": " ev",
    "8300": " em",
    "8301": " diaper",
    "8302": " court",
    "8303": " cotton",
    "8304": " coop",
    "8305": " convinced",
    "8306": " container",
    "8307": " concentr",
    "8308": " colder",
    "8309": " cheers",
    "8310": " capture",
    "8311": " bushy",
    "8312": " buses",
    "8313": " beast",
    "8314": " bound",
    "8315": " Zara",
    "8316": " Win",
    "8317": " Under",
    "8318": " Te",
    "8319": " Startled",
    "8320": " Squeak",
    "8321": " Speedy",
    "8322": " Rainbow",
    "8323": " Make",
    "8324": " Listen",
    "8325": " Lions",
    "8326": " Jul",
    "8327": " Jax",
    "8328": " Hold",
    "8329": " Frankie",
    "8330": " Fiona",
    "8331": " Eat",
    "8332": " Carla",
    "8333": " Cr",
    "8334": " Cathy",
    "8335": " Bertha",
    "8336": " ouch",
    "8337": " 4",
    "8338": "â¦",
    "8339": "whel",
    "8340": "whelmed",
    "8341": "water",
    "8342": "uart",
    "8343": "that",
    "8344": "steps",
    "8345": "solut",
    "8346": "riet",
    "8347": "rap",
    "8348": "rup",
    "8349": "rough",
    "8350": "oyal",
    "8351": "ousy",
    "8352": "ky",
    "8353": "ka",
    "8354": "isions",
    "8355": "ipes",
    "8356": "ingly",
    "8357": "ilky",
    "8358": "ika",
    "8359": "ics",
    "8360": "icate",
    "8361": "hind",
    "8362": "gets",
    "8363": "getic",
    "8364": "free",
    "8365": "essa",
    "8366": "empt",
    "8367": "ecca",
    "8368": "dog",
    "8369": "citedly",
    "8370": "bba",
    "8371": "bell",
    "8372": "atural",
    "8373": "aroni",
    "8374": "anced",
    "8375": "ample",
    "8376": "acle",
    "8377": "Surprise",
    "8378": "Rory",
    "8379": "Pl",
    "8380": "Ol",
    "8381": "Mikey",
    "8382": "Moo",
    "8383": "Mine",
    "8384": "Michael",
    "8385": "Lou",
    "8386": "Kids",
    "8387": "Karen",
    "8388": "Jacky",
    "8389": "June",
    "8390": "Jump",
    "8391": "Ju",
    "8392": "Jessie",
    "8393": "Jacob",
    "8394": "Everyday",
    "8395": "Danger",
    "8396": "Curious",
    "8397": "Bubbles",
    "8398": "Beep",
    "8399": "Always",
    "8400": "?â.",
    "8401": " yummiest",
    "8402": " wiser",
    "8403": " whoo",
    "8404": " welcoming",
    "8405": " waterfall",
    "8406": " warrior",
    "8407": " unpacking",
    "8408": " types",
    "8409": " trading",
    "8410": " traded",
    "8411": " toss",
    "8412": " thicker",
    "8413": " textures",
    "8414": " teamwork",
    "8415": " tum",
    "8416": " tin",
    "8417": " tested",
    "8418": " syrup",
    "8419": " swayed",
    "8420": " surrendered",
    "8421": " storms",
    "8422": " stumble",
    "8423": " sprays",
    "8424": " softest",
    "8425": " sniffing",
    "8426": " snaps",
    "8427": " snoring",
    "8428": " slapping",
    "8429": " ships",
    "8430": " sheets",
    "8431": " scurrying",
    "8432": " science",
    "8433": " sandpit",
    "8434": " salon",
    "8435": " rooster",
    "8436": " results",
    "8437": " reindeers",
    "8438": " refuse",
    "8439": " rebuild",
    "8440": " reappear",
    "8441": " recess",
    "8442": " rails",
    "8443": " rays",
    "8444": " rats",
    "8445": " presented",
    "8446": " posit",
    "8447": " plopped",
    "8448": " petting",
    "8449": " peacefulness",
    "8450": " peep",
    "8451": " pays",
    "8452": " palms",
    "8453": " packages",
    "8454": " overwhelmed",
    "8455": " nets",
    "8456": " noodles",
    "8457": " natural",
    "8458": " motorbike",
    "8459": " mooed",
    "8460": " miller",
    "8461": " mermaid",
    "8462": " members",
    "8463": " melons",
    "8464": " munched",
    "8465": " mend",
    "8466": " lookout",
    "8467": " loads",
    "8468": " locks",
    "8469": " languages",
    "8470": " lava",
    "8471": " kneeling",
    "8472": " kayaking",
    "8473": " instrument",
    "8474": " inter",
    "8475": " guessing",
    "8476": " grip",
    "8477": " goo",
    "8478": " ge",
    "8479": " gates",
    "8480": " gall",
    "8481": " freezing",
    "8482": " force",
    "8483": " folds",
    "8484": " fishy",
    "8485": " fills",
    "8486": " facing",
    "8487": " example",
    "8488": " energetic",
    "8489": " energ",
    "8490": " encount",
    "8491": " emerged",
    "8492": " drowned",
    "8493": " doorbell",
    "8494": " decisions",
    "8495": " deed",
    "8496": " dot",
    "8497": " current",
    "8498": " crowns",
    "8499": " croaked",
    "8500": " cousins",
    "8501": " cooed",
    "8502": " contented",
    "8503": " confidently",
    "8504": " comforting",
    "8505": " combed",
    "8506": " cocoon",
    "8507": " cloak",
    "8508": " chugged",
    "8509": " cartwhe",
    "8510": " caves",
    "8511": " bounded",
    "8512": " benches",
    "8513": " beeped",
    "8514": " backs",
    "8515": " bitten",
    "8516": " awhile",
    "8517": " attempt",
    "8518": " artwork",
    "8519": " announced",
    "8520": " allergic",
    "8521": " although",
    "8522": " adventurer",
    "8523": " Tyler",
    "8524": " Tre",
    "8525": " Tigger",
    "8526": " Ste",
    "8527": " Shadow",
    "8528": " Rory",
    "8529": " Pebby",
    "8530": " Pippy",
    "8531": " Over",
    "8532": " Ouch",
    "8533": " Nana",
    "8534": " Nell",
    "8535": " Muffin",
    "8536": " La",
    "8537": " Holly",
    "8538": " Grand",
    "8539": " Goldie",
    "8540": " Glow",
    "8541": " Feeling",
    "8542": " Elizabeth",
    "8543": " Eddie",
    "8544": " Dove",
    "8545": " Dull",
    "8546": " Dee",
    "8547": " Carlos",
    "8548": " Carly",
    "8549": " Cow",
    "8550": " Che",
    "8551": " Bubba",
    "8552": " Bobbie",
    "8553": " Baldy",
    "8554": " Auntie",
    "8555": " Af",
    "8556": " 911",
    "8557": " ill",
    "8558": "â,",
    "8559": "ylves",
    "8560": "ylvester",
    "8561": "wen",
    "8562": "val",
    "8563": "uster",
    "8564": "uffed",
    "8565": "toise",
    "8566": "ths",
    "8567": "scotch",
    "8568": "rica",
    "8569": "rum",
    "8570": "quet",
    "8571": "plash",
    "8572": "ously",
    "8573": "ouquet",
    "8574": "opsy",
    "8575": "ocul",
    "8576": "oculars",
    "8577": "oard",
    "8578": "lle",
    "8579": "llas",
    "8580": "iped",
    "8581": "iller",
    "8582": "ighting",
    "8583": "igi",
    "8584": "ictor",
    "8585": "ibly",
    "8586": "hog",
    "8587": "esus",
    "8588": "ection",
    "8589": "earing",
    "8590": "da",
    "8591": "cher",
    "8592": "bit",
    "8593": "aula",
    "8594": "atitude",
    "8595": "antrum",
    "8596": "anted",
    "8597": "anion",
    "8598": "alled",
    "8599": "aint",
    "8600": "acks",
    "8601": "Zero",
    "8602": "Uncle",
    "8603": "Take",
    "8604": "Sus",
    "8605": "Slowly",
    "8606": "Silly",
    "8607": "Remy",
    "8608": "Pretty",
    "8609": "Momma",
    "8610": "Maya",
    "8611": "Mo",
    "8612": "Lucky",
    "8613": "Jenna",
    "8614": "Jess",
    "8615": "Jerry",
    "8616": "Follow",
    "8617": "Deal",
    "8618": "Choo",
    "8619": "Carly",
    "8620": "Carl",
    "8621": "Becky",
    "8622": "Beth",
    "8623": "00",
    "8624": " zips",
    "8625": " worn",
    "8626": " umbrellas",
    "8627": " tummies",
    "8628": " traveling",
    "8629": " tortoise",
    "8630": " thunderstorm",
    "8631": " thumbs",
    "8632": " tying",
    "8633": " tumbling",
    "8634": " tantrum",
    "8635": " sweaty",
    "8636": " surprising",
    "8637": " stores",
    "8638": " stew",
    "8639": " stitches",
    "8640": " squeezing",
    "8641": " squeal",
    "8642": " sometime",
    "8643": " snowfl",
    "8644": " sniffs",
    "8645": " sleeps",
    "8646": " slurp",
    "8647": " slug",
    "8648": " skeletons",
    "8649": " skirts",
    "8650": " shovels",
    "8651": " shooed",
    "8652": " shallow",
    "8653": " seasons",
    "8654": " screws",
    "8655": " scrub",
    "8656": " scooters",
    "8657": " scoops",
    "8658": " scene",
    "8659": " sly",
    "8660": " sinking",
    "8661": " reversing",
    "8662": " revealing",
    "8663": " restoring",
    "8664": " rev",
    "8665": " races",
    "8666": " rowed",
    "8667": " ribbit",
    "8668": " progress",
    "8669": " proved",
    "8670": " pedaling",
    "8671": " pearls",
    "8672": " purch",
    "8673": " observing",
    "8674": " motorcycles",
    "8675": " meowing",
    "8676": " macaroni",
    "8677": " mitt",
    "8678": " mast",
    "8679": " lipstick",
    "8680": " levers",
    "8681": " labels",
    "8682": " jumper",
    "8683": " juic",
    "8684": " judges",
    "8685": " joked",
    "8686": " insisting",
    "8687": " increasing",
    "8688": " hunting",
    "8689": " hummed",
    "8690": " hopscotch",
    "8691": " hooves",
    "8692": " hisses",
    "8693": " hesitation",
    "8694": " heavily",
    "8695": " haven",
    "8696": " gratitude",
    "8697": " glittering",
    "8698": " gasps",
    "8699": " gardens",
    "8700": " footsteps",
    "8701": " flashed",
    "8702": " fights",
    "8703": " facts",
    "8704": " extraordinary",
    "8705": " explains",
    "8706": " explaining",
    "8707": " exercising",
    "8708": " exchange",
    "8709": " evil",
    "8710": " erupt",
    "8711": " erase",
    "8712": " echo",
    "8713": " dolly",
    "8714": " dump",
    "8715": " dou",
    "8716": " dong",
    "8717": " crocodiles",
    "8718": " crafts",
    "8719": " continuing",
    "8720": " considerate",
    "8721": " compliment",
    "8722": " companion",
    "8723": " coach",
    "8724": " closing",
    "8725": " cleans",
    "8726": " clicked",
    "8727": " chopping",
    "8728": " chicks",
    "8729": " chill",
    "8730": " cares",
    "8731": " carefree",
    "8732": " certain",
    "8733": " brightest",
    "8734": " boil",
    "8735": " binoculars",
    "8736": " bouquet",
    "8737": " attacked",
    "8738": " applause",
    "8739": " amused",
    "8740": " allowing",
    "8741": " alley",
    "8742": " address",
    "8743": " achievement",
    "8744": " aboard",
    "8745": " Tia",
    "8746": " Susy",
    "8747": " Stitch",
    "8748": " Stan",
    "8749": " Sonya",
    "8750": " Rosy",
    "8751": " Ran",
    "8752": " Peep",
    "8753": " Pick",
    "8754": " Pen",
    "8755": " Mousy",
    "8756": " Milo",
    "8757": " Loyal",
    "8758": " Linda",
    "8759": " Knight",
    "8760": " Kathy",
    "8761": " Karen",
    "8762": " Jeremy",
    "8763": " Hug",
    "8764": " Har",
    "8765": " Elsa",
    "8766": " Cocoa",
    "8767": " Curious",
    "8768": " Africa",
    "8769": " Ana",
    "8770": " Alfie",
    "8771": "ware",
    "8772": "vroom",
    "8773": "vince",
    "8774": "usa",
    "8775": "urphy",
    "8776": "urf",
    "8777": "upert",
    "8778": "unicate",
    "8779": "stand",
    "8780": "saw",
    "8781": "sa",
    "8782": "rily",
    "8783": "pect",
    "8784": "para",
    "8785": "parable",
    "8786": "ousand",
    "8787": "osa",
    "8788": "ormation",
    "8789": "oplets",
    "8790": "onies",
    "8791": "oned",
    "8792": "olby",
    "8793": "nival",
    "8794": "manda",
    "8795": "lled",
    "8796": "immered",
    "8797": "ilda",
    "8798": "iggie",
    "8799": "idents",
    "8800": "idence",
    "8801": "hny",
    "8802": "gre",
    "8803": "erpiece",
    "8804": "erina",
    "8805": "emon",
    "8806": "emies",
    "8807": "elope",
    "8808": "ew",
    "8809": "ccidents",
    "8810": "atre",
    "8811": "atilda",
    "8812": "aret",
    "8813": "arger",
    "8814": "apot",
    "8815": "antern",
    "8816": "amil",
    "8817": "acles",
    "8818": "about",
    "8819": "Using",
    "8820": "Tara",
    "8821": "THE",
    "8822": "Suzy",
    "8823": "Spike",
    "8824": "Spark",
    "8825": "Shoo",
    "8826": "Ricky",
    "8827": "Ribbit",
    "8828": "RO",
    "8829": "Playing",
    "8830": "People",
    "8831": "Out",
    "8832": "Nice",
    "8833": "Move",
    "8834": "Kayla",
    "8835": "Jeff",
    "8836": "Jackie",
    "8837": "Joy",
    "8838": "Jan",
    "8839": "El",
    "8840": "Dee",
    "8841": "Betty",
    "8842": "Br",
    "8843": "Boys",
    "8844": "Both",
    "8845": "Bert",
    "8846": "Anne",
    "8847": "Achoo",
    "8848": "',",
    "8849": " wealth",
    "8850": " weighing",
    "8851": " wanna",
    "8852": " untangled",
    "8853": " unicorns",
    "8854": " trusty",
    "8855": " tripping",
    "8856": " traps",
    "8857": " tidied",
    "8858": " tickling",
    "8859": " theatre",
    "8860": " tempted",
    "8861": " teams",
    "8862": " teapot",
    "8863": " tastiest",
    "8864": " talents",
    "8865": " tablet",
    "8866": " swirls",
    "8867": " sweetly",
    "8868": " swoop",
    "8869": " switched",
    "8870": " swat",
    "8871": " supporting",
    "8872": " stuffing",
    "8873": " squawk",
    "8874": " sprinkle",
    "8875": " solving",
    "8876": " softness",
    "8877": " soda",
    "8878": " snowflakes",
    "8879": " sniffled",
    "8880": " sneaks",
    "8881": " sleigh",
    "8882": " singers",
    "8883": " shrugs",
    "8884": " shuff",
    "8885": " shave",
    "8886": " shall",
    "8887": " sensation",
    "8888": " scree",
    "8889": " roundabout",
    "8890": " returning",
    "8891": " relaxing",
    "8892": " raising",
    "8893": " rink",
    "8894": " rack",
    "8895": " questioned",
    "8896": " quacking",
    "8897": " purchase",
    "8898": " poisoned",
    "8899": " pointer",
    "8900": " popping",
    "8901": " pizzas",
    "8902": " peeped",
    "8903": " pandas",
    "8904": " oceans",
    "8905": " necks",
    "8906": " napped",
    "8907": " musicians",
    "8908": " movements",
    "8909": " moonlight",
    "8910": " milksh",
    "8911": " messed",
    "8912": " masterpiece",
    "8913": " massages",
    "8914": " loc",
    "8915": " lies",
    "8916": " level",
    "8917": " layer",
    "8918": " larger",
    "8919": " lantern",
    "8920": " journeys",
    "8921": " joins",
    "8922": " invites",
    "8923": " inseparable",
    "8924": " improving",
    "8925": " hurricanes",
    "8926": " hunters",
    "8927": " hundreds",
    "8928": " honesty",
    "8929": " hedgehog",
    "8930": " healthier",
    "8931": " headache",
    "8932": " hardest",
    "8933": " hood",
    "8934": " guarding",
    "8935": " gratefully",
    "8936": " grump",
    "8937": " grumbled",
    "8938": " geese",
    "8939": " gaps",
    "8940": " funn",
    "8941": " frustration",
    "8942": " forgives",
    "8943": " floaty",
    "8944": " flock",
    "8945": " flips",
    "8946": " fireflies",
    "8947": " feathered",
    "8948": " expecting",
    "8949": " enemies",
    "8950": " dripped",
    "8951": " droplets",
    "8952": " disobeyed",
    "8953": " disappointment",
    "8954": " differences",
    "8955": " depths",
    "8956": " demanding",
    "8957": " dev",
    "8958": " deck",
    "8959": " dashed",
    "8960": " cupcake",
    "8961": " crisp",
    "8962": " cowboys",
    "8963": " convince",
    "8964": " compete",
    "8965": " communicate",
    "8966": " common",
    "8967": " command",
    "8968": " clut",
    "8969": " cheaper",
    "8970": " chatting",
    "8971": " charm",
    "8972": " chin",
    "8973": " carries",
    "8974": " carnival",
    "8975": " braver",
    "8976": " boarded",
    "8977": " boiled",
    "8978": " bleated",
    "8979": " blamed",
    "8980": " blades",
    "8981": " belongings",
    "8982": " bells",
    "8983": " behaviour",
    "8984": " beautifully",
    "8985": " ballerina",
    "8986": " badger",
    "8987": " bait",
    "8988": " born",
    "8989": " bas",
    "8990": " baker",
    "8991": " appet",
    "8992": " anger",
    "8993": " amongst",
    "8994": " alongside",
    "8995": " airplanes",
    "8996": " adds",
    "8997": " ability",
    "8998": " aband",
    "8999": " aim",
    "9000": " Yvonne",
    "9001": " Welcome",
    "9002": " Vroom",
    "9003": " Tomorrow",
    "9004": " Todd",
    "9005": " Tigers",
    "9006": " Starla",
    "9007": " Shelly",
    "9008": " Samantha",
    "9009": " Sylvester",
    "9010": " Rocky",
    "9011": " Robert",
    "9012": " Rani",
    "9013": " Pippin",
    "9014": " Patty",
    "9015": " Per",
    "9016": " Oak",
    "9017": " Number",
    "9018": " Nice",
    "9019": " Miller",
    "9020": " Lenny",
    "9021": " Lacey",
    "9022": " Johnnie",
    "9023": " Janet",
    "9024": " Jesus",
    "9025": " Inny",
    "9026": " Im",
    "9027": " Hugo",
    "9028": " Hope",
    "9029": " Granny",
    "9030": " Gray",
    "9031": " Gemma",
    "9032": " Flopsy",
    "9033": " Fido",
    "9034": " Elly",
    "9035": " Cle",
    "9036": " Bernie",
    "9037": " Bones",
    "9038": " Biff",
    "9039": " Another",
    "9040": " Allie",
    "9041": " Along",
    "9042": " Alan",
    "9043": " Ar",
    "9044": " Accidents",
    "9045": "wee",
    "9046": "venir",
    "9047": "urger",
    "9048": "umm",
    "9049": "ullaby",
    "9050": "uggy",
    "9051": "uca",
    "9052": "ubbs",
    "9053": "uke",
    "9054": "uess",
    "9055": "toed",
    "9056": "speople",
    "9057": "solutely",
    "9058": "reg",
    "9059": "racey",
    "9060": "rupt",
    "9061": "phew",
    "9062": "past",
    "9063": "pan",
    "9064": "ows",
    "9065": "orgeous",
    "9066": "orty",
    "9067": "oody",
    "9068": "opp",
    "9069": "of",
    "9070": "nings",
    "9071": "mary",
    "9072": "lest",
    "9073": "lish",
    "9074": "lia",
    "9075": "izzi",
    "9076": "izmo",
    "9077": "ixie",
    "9078": "isted",
    "9079": "iring",
    "9080": "inkle",
    "9081": "inging",
    "9082": "inct",
    "9083": "iam",
    "9084": "hocol",
    "9085": "hocolate",
    "9086": "hings",
    "9087": "ession",
    "9088": "ering",
    "9089": "elped",
    "9090": "elicious",
    "9091": "evin",
    "9092": "ded",
    "9093": "cutter",
    "9094": "balls",
    "9095": "atha",
    "9096": "arley",
    "9097": "angle",
    "9098": "amiliar",
    "9099": "alty",
    "9100": "alt",
    "9101": "ahlia",
    "9102": "Try",
    "9103": "Tam",
    "9104": "Still",
    "9105": "Stella",
    "9106": "Rob",
    "9107": "Poppy",
    "9108": "Pip",
    "9109": "Pe",
    "9110": "Nutty",
    "9111": "Nick",
    "9112": "Momo",
    "9113": "Martha",
    "9114": "Hold",
    "9115": "Frankie",
    "9116": "Fortunately",
    "9117": "Each",
    "9118": "Daniel",
    "9119": "Dog",
    "9120": "Cheese",
    "9121": "Bo",
    "9122": "Ana",
    "9123": " zippers",
    "9124": " yelped",
    "9125": " wrinkled",
    "9126": " wond",
    "9127": " winding",
    "9128": " whoosh",
    "9129": " whoever",
    "9130": " whined",
    "9131": " washes",
    "9132": " warmest",
    "9133": " waking",
    "9134": " waded",
    "9135": " unlocking",
    "9136": " unloaded",
    "9137": " unfamiliar",
    "9138": " unfair",
    "9139": " unicycle",
    "9140": " uncovered",
    "9141": " twists",
    "9142": " tunes",
    "9143": " trunks",
    "9144": " treas",
    "9145": " trades",
    "9146": " townspeople",
    "9147": " toad",
    "9148": " tingling",
    "9149": " tickles",
    "9150": " thump",
    "9151": " thousand",
    "9152": " tests",
    "9153": " tablecloth",
    "9154": " ties",
    "9155": " surrounding",
    "9156": " stroller",
    "9157": " souvenir",
    "9158": " snowing",
    "9159": " snorted",
    "9160": " sneezes",
    "9161": " slight",
    "9162": " sincere",
    "9163": " shinier",
    "9164": " scratchy",
    "9165": " scre",
    "9166": " sus",
    "9167": " signing",
    "9168": " section",
    "9169": " runny",
    "9170": " rewarding",
    "9171": " revved",
    "9172": " repairing",
    "9173": " repairs",
    "9174": " rely",
    "9175": " raked",
    "9176": " rises",
    "9177": " purpose",
    "9178": " protection",
    "9179": " projects",
    "9180": " pretzel",
    "9181": " pounds",
    "9182": " positive",
    "9183": " popsicle",
    "9184": " pleasant",
    "9185": " pennies",
    "9186": " pecking",
    "9187": " partner",
    "9188": " parrots",
    "9189": " pail",
    "9190": " ponies",
    "9191": " papa",
    "9192": " owns",
    "9193": " ostriches",
    "9194": " opinions",
    "9195": " ogre",
    "9196": " nightmares",
    "9197": " nibbling",
    "9198": " necklaces",
    "9199": " nephew",
    "9200": " mustered",
    "9201": " mornings",
    "9202": " mooing",
    "9203": " moons",
    "9204": " mitts",
    "9205": " mindful",
    "9206": " milkshake",
    "9207": " member",
    "9208": " meadows",
    "9209": " mattered",
    "9210": " lumberj",
    "9211": " loyalty",
    "9212": " loos",
    "9213": " loses",
    "9214": " lobby",
    "9215": " listener",
    "9216": " lighthouse",
    "9217": " laws",
    "9218": " launched",
    "9219": " lace",
    "9220": " lush",
[...]
